{
  "version": "1.0",
  "truncation": null,
  "padding": null,
  "added_tokens": [
    {
      "id": 0,
      "content": "[UNK]",
      "single_word": false,
      "lstrip": false,
      "rstrip": false,
      "normalized": false,
      "special": true
    },
    {
      "id": 1,
      "content": "[CLS]",
      "single_word": false,
      "lstrip": false,
      "rstrip": false,
      "normalized": false,
      "special": true
    },
    {
      "id": 2,
      "content": "[SEP]",
      "single_word": false,
      "lstrip": false,
      "rstrip": false,
      "normalized": false,
      "special": true
    },
    {
      "id": 3,
      "content": "[PAD]",
      "single_word": false,
      "lstrip": false,
      "rstrip": false,
      "normalized": false,
      "special": true
    },
    {
      "id": 4,
      "content": "[MASK]",
      "single_word": false,
      "lstrip": false,
      "rstrip": false,
      "normalized": false,
      "special": true
    }
  ],
  "normalizer": null,
  "pre_tokenizer": {
    "type": "Whitespace"
  },
  "post_processor": null,
  "decoder": null,
  "model": {
    "type": "BPE",
    "dropout": null,
    "unk_token": "[UNK]",
    "continuing_subword_prefix": null,
    "end_of_word_suffix": null,
    "fuse_unk": false,
    "byte_fallback": false,
    "vocab": {
      "[UNK]": 0,
      "[CLS]": 1,
      "[SEP]": 2,
      "[PAD]": 3,
      "[MASK]": 4,
      "\u0000": 5,
      "\u0001": 6,
      "\u0002": 7,
      "\u0003": 8,
      "\u0004": 9,
      "\u0005": 10,
      "\u0007": 11,
      "\b": 12,
      "\u000e": 13,
      "\u0010": 14,
      "\u0011": 15,
      "\u0012": 16,
      "\u0013": 17,
      "\u0014": 18,
      "\u0015": 19,
      "\u0017": 20,
      "\u0018": 21,
      "\u001a": 22,
      "\u001b": 23,
      "\u001c": 24,
      "\u001d": 25,
      "\u001e": 26,
      "!": 27,
      "\"": 28,
      "#": 29,
      "$": 30,
      "%": 31,
      "&": 32,
      "'": 33,
      "(": 34,
      ")": 35,
      "*": 36,
      "+": 37,
      ",": 38,
      "-": 39,
      ".": 40,
      "/": 41,
      "0": 42,
      "1": 43,
      "2": 44,
      "3": 45,
      "4": 46,
      "5": 47,
      "6": 48,
      "7": 49,
      "8": 50,
      "9": 51,
      ":": 52,
      ";": 53,
      "<": 54,
      "=": 55,
      ">": 56,
      "?": 57,
      "@": 58,
      "A": 59,
      "B": 60,
      "C": 61,
      "D": 62,
      "E": 63,
      "F": 64,
      "G": 65,
      "H": 66,
      "I": 67,
      "J": 68,
      "K": 69,
      "L": 70,
      "M": 71,
      "N": 72,
      "O": 73,
      "P": 74,
      "Q": 75,
      "R": 76,
      "S": 77,
      "T": 78,
      "U": 79,
      "V": 80,
      "W": 81,
      "X": 82,
      "Y": 83,
      "Z": 84,
      "[": 85,
      "\\": 86,
      "]": 87,
      "^": 88,
      "_": 89,
      "`": 90,
      "a": 91,
      "b": 92,
      "c": 93,
      "d": 94,
      "e": 95,
      "f": 96,
      "g": 97,
      "h": 98,
      "i": 99,
      "j": 100,
      "k": 101,
      "l": 102,
      "m": 103,
      "n": 104,
      "o": 105,
      "p": 106,
      "q": 107,
      "r": 108,
      "s": 109,
      "t": 110,
      "u": 111,
      "v": 112,
      "w": 113,
      "x": 114,
      "y": 115,
      "z": 116,
      "{": 117,
      "}": 118,
      "~": 119,
      "": 120,
      "": 121,
      "": 122,
      "": 123,
      "": 124,
      "": 125,
      "": 126,
      "": 127,
      "": 128,
      "": 129,
      "": 130,
      "": 131,
      "": 132,
      "": 133,
      "": 134,
      "": 135,
      "": 136,
      "": 137,
      "": 138,
      "": 139,
      "": 140,
      "": 141,
      "": 142,
      "": 143,
      "": 144,
      "": 145,
      "": 146,
      "": 147,
      "": 148,
      "": 149,
      "": 150,
      "¡": 151,
      "¢": 152,
      "£": 153,
      "¤": 154,
      "¥": 155,
      "¦": 156,
      "§": 157,
      "¨": 158,
      "©": 159,
      "ª": 160,
      "«": 161,
      "¬": 162,
      "­": 163,
      "®": 164,
      "¯": 165,
      "°": 166,
      "±": 167,
      "²": 168,
      "³": 169,
      "´": 170,
      "µ": 171,
      "¶": 172,
      "·": 173,
      "¸": 174,
      "¹": 175,
      "º": 176,
      "»": 177,
      "¼": 178,
      "½": 179,
      "¾": 180,
      "¿": 181,
      "À": 182,
      "Á": 183,
      "Â": 184,
      "Ã": 185,
      "Ä": 186,
      "Å": 187,
      "Æ": 188,
      "Ç": 189,
      "È": 190,
      "É": 191,
      "Ê": 192,
      "Ë": 193,
      "Ì": 194,
      "Í": 195,
      "Î": 196,
      "Ï": 197,
      "Ð": 198,
      "Ñ": 199,
      "Ò": 200,
      "Ó": 201,
      "Ô": 202,
      "Õ": 203,
      "Ö": 204,
      "×": 205,
      "Ø": 206,
      "Ù": 207,
      "Ú": 208,
      "Û": 209,
      "Ü": 210,
      "Ý": 211,
      "Þ": 212,
      "ß": 213,
      "à": 214,
      "á": 215,
      "â": 216,
      "ã": 217,
      "ä": 218,
      "å": 219,
      "æ": 220,
      "ç": 221,
      "è": 222,
      "é": 223,
      "ê": 224,
      "ë": 225,
      "ì": 226,
      "í": 227,
      "î": 228,
      "ï": 229,
      "ð": 230,
      "ñ": 231,
      "ò": 232,
      "ó": 233,
      "ô": 234,
      "õ": 235,
      "ö": 236,
      "÷": 237,
      "ø": 238,
      "ù": 239,
      "ú": 240,
      "û": 241,
      "ü": 242,
      "ý": 243,
      "þ": 244,
      "ÿ": 245,
      "Ā": 246,
      "ā": 247,
      "Ă": 248,
      "ă": 249,
      "Ą": 250,
      "ą": 251,
      "Ć": 252,
      "ć": 253,
      "Ĉ": 254,
      "ĉ": 255,
      "Ċ": 256,
      "ċ": 257,
      "Č": 258,
      "č": 259,
      "Ď": 260,
      "ď": 261,
      "Đ": 262,
      "đ": 263,
      "Ē": 264,
      "ē": 265,
      "Ĕ": 266,
      "ĕ": 267,
      "Ė": 268,
      "ė": 269,
      "Ę": 270,
      "ę": 271,
      "Ě": 272,
      "ě": 273,
      "Ĝ": 274,
      "ĝ": 275,
      "Ğ": 276,
      "ğ": 277,
      "Ġ": 278,
      "ġ": 279,
      "Ģ": 280,
      "ģ": 281,
      "Ĥ": 282,
      "ĥ": 283,
      "Ħ": 284,
      "ħ": 285,
      "Ĩ": 286,
      "ĩ": 287,
      "Ī": 288,
      "ī": 289,
      "Ĭ": 290,
      "ĭ": 291,
      "Į": 292,
      "į": 293,
      "İ": 294,
      "ı": 295,
      "Ĳ": 296,
      "ĳ": 297,
      "Ĵ": 298,
      "ĵ": 299,
      "Ķ": 300,
      "ķ": 301,
      "ĸ": 302,
      "Ĺ": 303,
      "ĺ": 304,
      "Ļ": 305,
      "ļ": 306,
      "Ľ": 307,
      "ľ": 308,
      "Ŀ": 309,
      "ŀ": 310,
      "Ł": 311,
      "ł": 312,
      "Ń": 313,
      "ń": 314,
      "Ņ": 315,
      "ņ": 316,
      "Ň": 317,
      "ň": 318,
      "ŉ": 319,
      "Ŋ": 320,
      "ŋ": 321,
      "Ō": 322,
      "ō": 323,
      "Ŏ": 324,
      "ŏ": 325,
      "Ő": 326,
      "ő": 327,
      "Œ": 328,
      "œ": 329,
      "Ŕ": 330,
      "ŕ": 331,
      "ŗ": 332,
      "Ř": 333,
      "ř": 334,
      "Ś": 335,
      "ś": 336,
      "Ŝ": 337,
      "ŝ": 338,
      "Ş": 339,
      "ş": 340,
      "Š": 341,
      "š": 342,
      "Ţ": 343,
      "ţ": 344,
      "Ť": 345,
      "ť": 346,
      "Ŧ": 347,
      "ŧ": 348,
      "Ũ": 349,
      "ũ": 350,
      "Ū": 351,
      "ū": 352,
      "Ŭ": 353,
      "ŭ": 354,
      "Ů": 355,
      "ů": 356,
      "Ű": 357,
      "ű": 358,
      "Ų": 359,
      "ų": 360,
      "ŵ": 361,
      "Ŷ": 362,
      "ŷ": 363,
      "Ÿ": 364,
      "Ź": 365,
      "ź": 366,
      "Ż": 367,
      "ż": 368,
      "Ž": 369,
      "ž": 370,
      "ſ": 371,
      "Ɓ": 372,
      "Ƅ": 373,
      "ƅ": 374,
      "Ɔ": 375,
      "ƈ": 376,
      "Ɗ": 377,
      "Ə": 378,
      "Ɛ": 379,
      "ƒ": 380,
      "Ɣ": 381,
      "ƕ": 382,
      "ƙ": 383,
      "ƚ": 384,
      "ƛ": 385,
      "Ɲ": 386,
      "Ɵ": 387,
      "ơ": 388,
      "Ƣ": 389,
      "ƣ": 390,
      "Ʃ": 391,
      "ƫ": 392,
      "ư": 393,
      "Ƴ": 394,
      "ƴ": 395,
      "Ƶ": 396,
      "ƶ": 397,
      "Ʒ": 398,
      "ƿ": 399,
      "ǀ": 400,
      "ǁ": 401,
      "ǂ": 402,
      "ǃ": 403,
      "ǈ": 404,
      "ǎ": 405,
      "ǐ": 406,
      "ǒ": 407,
      "Ǔ": 408,
      "ǔ": 409,
      "ǘ": 410,
      "Ǚ": 411,
      "ǚ": 412,
      "ǝ": 413,
      "ǟ": 414,
      "Ǣ": 415,
      "ǣ": 416,
      "ǥ": 417,
      "Ǧ": 418,
      "ǧ": 419,
      "ǩ": 420,
      "ǫ": 421,
      "ǭ": 422,
      "Ǯ": 423,
      "ǯ": 424,
      "ǰ": 425,
      "ǵ": 426,
      "Ƕ": 427,
      "Ƿ": 428,
      "ǹ": 429,
      "ǻ": 430,
      "Ǽ": 431,
      "ǽ": 432,
      "Ǿ": 433,
      "ȁ": 434,
      "Ȃ": 435,
      "ȇ": 436,
      "ȋ": 437,
      "ȏ": 438,
      "Ȓ": 439,
      "ȓ": 440,
      "ȗ": 441,
      "Ș": 442,
      "ș": 443,
      "Ț": 444,
      "ț": 445,
      "Ȝ": 446,
      "ȝ": 447,
      "Ȟ": 448,
      "ȟ": 449,
      "ȡ": 450,
      "ȧ": 451,
      "ȫ": 452,
      "ȯ": 453,
      "Ȳ": 454,
      "ȳ": 455,
      "ȴ": 456,
      "ȵ": 457,
      "ȶ": 458,
      "ȷ": 459,
      "ȸ": 460,
      "ȹ": 461,
      "Ɂ": 462,
      "ɂ": 463,
      "Ʉ": 464,
      "Ʌ": 465,
      "ɐ": 466,
      "ɑ": 467,
      "ɒ": 468,
      "ɓ": 469,
      "ɔ": 470,
      "ɕ": 471,
      "ɖ": 472,
      "ɗ": 473,
      "ɘ": 474,
      "ə": 475,
      "ɚ": 476,
      "ɛ": 477,
      "ɜ": 478,
      "ɝ": 479,
      "ɟ": 480,
      "ɠ": 481,
      "ɡ": 482,
      "ɢ": 483,
      "ɣ": 484,
      "ɤ": 485,
      "ɥ": 486,
      "ɦ": 487,
      "ɧ": 488,
      "ɨ": 489,
      "ɩ": 490,
      "ɪ": 491,
      "ɫ": 492,
      "ɬ": 493,
      "ɭ": 494,
      "ɮ": 495,
      "ɯ": 496,
      "ɰ": 497,
      "ɱ": 498,
      "ɲ": 499,
      "ɳ": 500,
      "ɴ": 501,
      "ɵ": 502,
      "ɶ": 503,
      "ɸ": 504,
      "ɹ": 505,
      "ɺ": 506,
      "ɻ": 507,
      "ɼ": 508,
      "ɽ": 509,
      "ɾ": 510,
      "ʀ": 511,
      "ʁ": 512,
      "ʂ": 513,
      "ʃ": 514,
      "ʄ": 515,
      "ʈ": 516,
      "ʉ": 517,
      "ʊ": 518,
      "ʋ": 519,
      "ʌ": 520,
      "ʍ": 521,
      "ʎ": 522,
      "ʏ": 523,
      "ʐ": 524,
      "ʑ": 525,
      "ʒ": 526,
      "ʔ": 527,
      "ʕ": 528,
      "ʖ": 529,
      "ʘ": 530,
      "ʙ": 531,
      "ʛ": 532,
      "ʜ": 533,
      "ʝ": 534,
      "ʟ": 535,
      "ʡ": 536,
      "ʢ": 537,
      "ʣ": 538,
      "ʤ": 539,
      "ʥ": 540,
      "ʦ": 541,
      "ʧ": 542,
      "ʨ": 543,
      "ʰ": 544,
      "ʱ": 545,
      "ʲ": 546,
      "ʴ": 547,
      "ʷ": 548,
      "ʹ": 549,
      "ʺ": 550,
      "ʻ": 551,
      "ʼ": 552,
      "ʽ": 553,
      "ʾ": 554,
      "ʿ": 555,
      "ˀ": 556,
      "ˁ": 557,
      "˅": 558,
      "ˆ": 559,
      "ˇ": 560,
      "ˈ": 561,
      "ˉ": 562,
      "ˊ": 563,
      "ˌ": 564,
      "ː": 565,
      "ˑ": 566,
      "˕": 567,
      "˘": 568,
      "˙": 569,
      "˚": 570,
      "˛": 571,
      "˜": 572,
      "˝": 573,
      "˞": 574,
      "ˠ": 575,
      "ˡ": 576,
      "ˢ": 577,
      "ˣ": 578,
      "ˤ": 579,
      "˥": 580,
      "˦": 581,
      "˧": 582,
      "˨": 583,
      "˩": 584,
      "̀": 585,
      "́": 586,
      "̂": 587,
      "̃": 588,
      "̄": 589,
      "̅": 590,
      "̆": 591,
      "̇": 592,
      "̈": 593,
      "̉": 594,
      "̊": 595,
      "̋": 596,
      "̌": 597,
      "̍": 598,
      "̏": 599,
      "̐": 600,
      "̑": 601,
      "̓": 602,
      "̕": 603,
      "̘": 604,
      "̙": 605,
      "̚": 606,
      "̛": 607,
      "̝": 608,
      "̞": 609,
      "̟": 610,
      "̠": 611,
      "̡": 612,
      "̢": 613,
      "̣": 614,
      "̤": 615,
      "̥": 616,
      "̦": 617,
      "̧": 618,
      "̨": 619,
      "̩": 620,
      "̪": 621,
      "̫": 622,
      "̬": 623,
      "̭": 624,
      "̯": 625,
      "̰": 626,
      "̱": 627,
      "̳": 628,
      "̴": 629,
      "̵": 630,
      "̶": 631,
      "̷": 632,
      "̹": 633,
      "̺": 634,
      "̻": 635,
      "̼": 636,
      "͂": 637,
      "̓": 638,
      "ͅ": 639,
      "͆": 640,
      "͇": 641,
      "͈": 642,
      "͗": 643,
      "͘": 644,
      "͜": 645,
      "͡": 646,
      "ͥ": 647,
      "Ͱ": 648,
      "ͱ": 649,
      "͵": 650,
      "Ͷ": 651,
      "ͷ": 652,
      "ͻ": 653,
      ";": 654,
      "΄": 655,
      "΅": 656,
      "Ά": 657,
      "·": 658,
      "Έ": 659,
      "Ή": 660,
      "Ί": 661,
      "Ό": 662,
      "Ύ": 663,
      "Ώ": 664,
      "ΐ": 665,
      "Α": 666,
      "Β": 667,
      "Γ": 668,
      "Δ": 669,
      "Ε": 670,
      "Ζ": 671,
      "Η": 672,
      "Θ": 673,
      "Ι": 674,
      "Κ": 675,
      "Λ": 676,
      "Μ": 677,
      "Ν": 678,
      "Ξ": 679,
      "Ο": 680,
      "Π": 681,
      "Ρ": 682,
      "Σ": 683,
      "Τ": 684,
      "Υ": 685,
      "Φ": 686,
      "Χ": 687,
      "Ψ": 688,
      "Ω": 689,
      "Ϊ": 690,
      "Ϋ": 691,
      "ά": 692,
      "έ": 693,
      "ή": 694,
      "ί": 695,
      "ΰ": 696,
      "α": 697,
      "β": 698,
      "γ": 699,
      "δ": 700,
      "ε": 701,
      "ζ": 702,
      "η": 703,
      "θ": 704,
      "ι": 705,
      "κ": 706,
      "λ": 707,
      "μ": 708,
      "ν": 709,
      "ξ": 710,
      "ο": 711,
      "π": 712,
      "ρ": 713,
      "ς": 714,
      "σ": 715,
      "τ": 716,
      "υ": 717,
      "φ": 718,
      "χ": 719,
      "ψ": 720,
      "ω": 721,
      "ϊ": 722,
      "ϋ": 723,
      "ό": 724,
      "ύ": 725,
      "ώ": 726,
      "Ϗ": 727,
      "ϐ": 728,
      "ϑ": 729,
      "ϒ": 730,
      "ϕ": 731,
      "ϖ": 732,
      "ϗ": 733,
      "Ϙ": 734,
      "ϙ": 735,
      "Ϛ": 736,
      "ϛ": 737,
      "Ϝ": 738,
      "ϝ": 739,
      "Ϟ": 740,
      "ϟ": 741,
      "Ϡ": 742,
      "ϡ": 743,
      "Ϣ": 744,
      "ϣ": 745,
      "ϥ": 746,
      "ϧ": 747,
      "Ϩ": 748,
      "ϩ": 749,
      "ϫ": 750,
      "ϭ": 751,
      "Ϯ": 752,
      "ϯ": 753,
      "ϱ": 754,
      "ϲ": 755,
      "ϵ": 756,
      "Ϲ": 757,
      "Ϻ": 758,
      "ϻ": 759,
      "Ͻ": 760,
      "Ͼ": 761,
      "Ͽ": 762,
      "Ё": 763,
      "Ђ": 764,
      "Ѓ": 765,
      "Є": 766,
      "Ѕ": 767,
      "І": 768,
      "Ї": 769,
      "Ј": 770,
      "Љ": 771,
      "Њ": 772,
      "Ћ": 773,
      "Ќ": 774,
      "Ў": 775,
      "Џ": 776,
      "А": 777,
      "Б": 778,
      "В": 779,
      "Г": 780,
      "Д": 781,
      "Е": 782,
      "Ж": 783,
      "З": 784,
      "И": 785,
      "Й": 786,
      "К": 787,
      "Л": 788,
      "М": 789,
      "Н": 790,
      "О": 791,
      "П": 792,
      "Р": 793,
      "С": 794,
      "Т": 795,
      "У": 796,
      "Ф": 797,
      "Х": 798,
      "Ц": 799,
      "Ч": 800,
      "Ш": 801,
      "Щ": 802,
      "Ъ": 803,
      "Ы": 804,
      "Ь": 805,
      "Э": 806,
      "Ю": 807,
      "Я": 808,
      "а": 809,
      "б": 810,
      "в": 811,
      "г": 812,
      "д": 813,
      "е": 814,
      "ж": 815,
      "з": 816,
      "и": 817,
      "й": 818,
      "к": 819,
      "л": 820,
      "м": 821,
      "н": 822,
      "о": 823,
      "п": 824,
      "р": 825,
      "с": 826,
      "т": 827,
      "у": 828,
      "ф": 829,
      "х": 830,
      "ц": 831,
      "ч": 832,
      "ш": 833,
      "щ": 834,
      "ъ": 835,
      "ы": 836,
      "ь": 837,
      "э": 838,
      "ю": 839,
      "я": 840,
      "ѐ": 841,
      "ё": 842,
      "ђ": 843,
      "ѓ": 844,
      "є": 845,
      "ѕ": 846,
      "і": 847,
      "ї": 848,
      "ј": 849,
      "љ": 850,
      "њ": 851,
      "ћ": 852,
      "ќ": 853,
      "ѝ": 854,
      "ў": 855,
      "џ": 856,
      "Ѡ": 857,
      "ѡ": 858,
      "Ѣ": 859,
      "ѣ": 860,
      "ѥ": 861,
      "Ѧ": 862,
      "ѧ": 863,
      "Ѩ": 864,
      "ѩ": 865,
      "Ѫ": 866,
      "ѫ": 867,
      "Ѭ": 868,
      "ѭ": 869,
      "Ѯ": 870,
      "ѯ": 871,
      "Ѱ": 872,
      "ѱ": 873,
      "Ѳ": 874,
      "ѳ": 875,
      "Ѵ": 876,
      "ѵ": 877,
      "ѹ": 878,
      "ѿ": 879,
      "Ҁ": 880,
      "҂": 881,
      "҃": 882,
      "Ҍ": 883,
      "ҍ": 884,
      "Ґ": 885,
      "ґ": 886,
      "Ғ": 887,
      "ғ": 888,
      "Ҕ": 889,
      "ҕ": 890,
      "Җ": 891,
      "җ": 892,
      "Ҙ": 893,
      "ҙ": 894,
      "Қ": 895,
      "қ": 896,
      "ҟ": 897,
      "Ҡ": 898,
      "ҡ": 899,
      "Ң": 900,
      "ң": 901,
      "Ҥ": 902,
      "ҥ": 903,
      "ҧ": 904,
      "Ҩ": 905,
      "ҩ": 906,
      "Ҫ": 907,
      "ҫ": 908,
      "Ҭ": 909,
      "Ү": 910,
      "ү": 911,
      "ұ": 912,
      "Ҳ": 913,
      "ҳ": 914,
      "Ҷ": 915,
      "ҷ": 916,
      "ҹ": 917,
      "Һ": 918,
      "һ": 919,
      "Ӏ": 920,
      "Ӂ": 921,
      "ӂ": 922,
      "Ӄ": 923,
      "ӄ": 924,
      "Ӈ": 925,
      "ӈ": 926,
      "ӏ": 927,
      "ӑ": 928,
      "Ӓ": 929,
      "ӓ": 930,
      "ӕ": 931,
      "ӗ": 932,
      "Ә": 933,
      "ә": 934,
      "Ӛ": 935,
      "Ӝ": 936,
      "ӝ": 937,
      "Ӟ": 938,
      "ӟ": 939,
      "Ӡ": 940,
      "ӡ": 941,
      "ӣ": 942,
      "Ӥ": 943,
      "ӥ": 944,
      "Ӧ": 945,
      "ӧ": 946,
      "Ө": 947,
      "ө": 948,
      "Ӫ": 949,
      "ӫ": 950,
      "ӯ": 951,
      "Ӱ": 952,
      "ӱ": 953,
      "ӳ": 954,
      "Ӵ": 955,
      "ӵ": 956,
      "ӹ": 957,
      "Ԅ": 958,
      "ԅ": 959,
      "Ա": 960,
      "Բ": 961,
      "Գ": 962,
      "Դ": 963,
      "Ե": 964,
      "Զ": 965,
      "Է": 966,
      "Ը": 967,
      "Թ": 968,
      "Ժ": 969,
      "Ի": 970,
      "Լ": 971,
      "Խ": 972,
      "Ծ": 973,
      "Կ": 974,
      "Հ": 975,
      "Ձ": 976,
      "Ղ": 977,
      "Ճ": 978,
      "Մ": 979,
      "Յ": 980,
      "Ն": 981,
      "Շ": 982,
      "Ո": 983,
      "Պ": 984,
      "Ջ": 985,
      "Ռ": 986,
      "Ս": 987,
      "Վ": 988,
      "Տ": 989,
      "Ր": 990,
      "Ց": 991,
      "Ւ": 992,
      "Փ": 993,
      "Ք": 994,
      "Օ": 995,
      "Ֆ": 996,
      "՛": 997,
      "՝": 998,
      "ա": 999,
      "բ": 1000,
      "գ": 1001,
      "դ": 1002,
      "ե": 1003,
      "զ": 1004,
      "է": 1005,
      "ը": 1006,
      "թ": 1007,
      "ժ": 1008,
      "ի": 1009,
      "լ": 1010,
      "խ": 1011,
      "ծ": 1012,
      "կ": 1013,
      "հ": 1014,
      "ձ": 1015,
      "ղ": 1016,
      "ճ": 1017,
      "մ": 1018,
      "յ": 1019,
      "ն": 1020,
      "շ": 1021,
      "ո": 1022,
      "չ": 1023,
      "պ": 1024,
      "ջ": 1025,
      "ռ": 1026,
      "ս": 1027,
      "վ": 1028,
      "տ": 1029,
      "ր": 1030,
      "ց": 1031,
      "ւ": 1032,
      "փ": 1033,
      "ք": 1034,
      "օ": 1035,
      "ֆ": 1036,
      "և": 1037,
      "։": 1038,
      "֔": 1039,
      "֙": 1040,
      "֠": 1041,
      "֣": 1042,
      "ְ": 1043,
      "ֱ": 1044,
      "ֲ": 1045,
      "ִ": 1046,
      "ֵ": 1047,
      "ֶ": 1048,
      "ַ": 1049,
      "ָ": 1050,
      "ֹ": 1051,
      "ֻ": 1052,
      "ּ": 1053,
      "ֽ": 1054,
      "־": 1055,
      "ֿ": 1056,
      "ׁ": 1057,
      "ׂ": 1058,
      "׃": 1059,
      "א": 1060,
      "ב": 1061,
      "ג": 1062,
      "ד": 1063,
      "ה": 1064,
      "ו": 1065,
      "ז": 1066,
      "ח": 1067,
      "ט": 1068,
      "י": 1069,
      "ך": 1070,
      "כ": 1071,
      "ל": 1072,
      "ם": 1073,
      "מ": 1074,
      "ן": 1075,
      "נ": 1076,
      "ס": 1077,
      "ע": 1078,
      "ף": 1079,
      "פ": 1080,
      "ץ": 1081,
      "צ": 1082,
      "ק": 1083,
      "ר": 1084,
      "ש": 1085,
      "ת": 1086,
      "װ": 1087,
      "ױ": 1088,
      "ײ": 1089,
      "׳": 1090,
      "״": 1091,
      "،": 1092,
      "؟": 1093,
      "ء": 1094,
      "آ": 1095,
      "أ": 1096,
      "ؤ": 1097,
      "إ": 1098,
      "ئ": 1099,
      "ا": 1100,
      "ب": 1101,
      "ة": 1102,
      "ت": 1103,
      "ث": 1104,
      "ج": 1105,
      "ح": 1106,
      "خ": 1107,
      "د": 1108,
      "ذ": 1109,
      "ر": 1110,
      "ز": 1111,
      "س": 1112,
      "ش": 1113,
      "ص": 1114,
      "ض": 1115,
      "ط": 1116,
      "ظ": 1117,
      "ع": 1118,
      "غ": 1119,
      "ـ": 1120,
      "ف": 1121,
      "ق": 1122,
      "ك": 1123,
      "ل": 1124,
      "م": 1125,
      "ن": 1126,
      "ه": 1127,
      "و": 1128,
      "ى": 1129,
      "ي": 1130,
      "ً": 1131,
      "ٌ": 1132,
      "ٍ": 1133,
      "َ": 1134,
      "ُ": 1135,
      "ِ": 1136,
      "ّ": 1137,
      "ْ": 1138,
      "ٔ": 1139,
      "٠": 1140,
      "١": 1141,
      "٢": 1142,
      "٣": 1143,
      "٤": 1144,
      "٥": 1145,
      "٦": 1146,
      "٧": 1147,
      "٨": 1148,
      "٩": 1149,
      "٫": 1150,
      "٬": 1151,
      "ٰ": 1152,
      "ٱ": 1153,
      "ٲ": 1154,
      "ٹ": 1155,
      "ٺ": 1156,
      "ټ": 1157,
      "ٽ": 1158,
      "پ": 1159,
      "ڀ": 1160,
      "ځ": 1161,
      "چ": 1162,
      "ڈ": 1163,
      "ڌ": 1164,
      "ڑ": 1165,
      "ړ": 1166,
      "ژ": 1167,
      "ښ": 1168,
      "ڠ": 1169,
      "ڢ": 1170,
      "ڤ": 1171,
      "ڥ": 1172,
      "ک": 1173,
      "ڪ": 1174,
      "ګ": 1175,
      "ڬ": 1176,
      "ڭ": 1177,
      "گ": 1178,
      "ڵ": 1179,
      "ں": 1180,
      "ھ": 1181,
      "ہ": 1182,
      "ۂ": 1183,
      "ۃ": 1184,
      "ۆ": 1185,
      "ۇ": 1186,
      "ۈ": 1187,
      "ۋ": 1188,
      "ی": 1189,
      "ۍ": 1190,
      "ێ": 1191,
      "ې": 1192,
      "ے": 1193,
      "ە": 1194,
      "۝": 1195,
      "۞": 1196,
      "۟": 1197,
      "ۥ": 1198,
      "۩": 1199,
      "۬": 1200,
      "۰": 1201,
      "۱": 1202,
      "۲": 1203,
      "۳": 1204,
      "۴": 1205,
      "۵": 1206,
      "۶": 1207,
      "۷": 1208,
      "۹": 1209,
      "܄": 1210,
      "ܐ": 1211,
      "ܒ": 1212,
      "ܓ": 1213,
      "ܕ": 1214,
      "ܗ": 1215,
      "ܘ": 1216,
      "ܙ": 1217,
      "ܚ": 1218,
      "ܛ": 1219,
      "ܝ": 1220,
      "ܟ": 1221,
      "ܠ": 1222,
      "ܡ": 1223,
      "ܢ": 1224,
      "ܣ": 1225,
      "ܥ": 1226,
      "ܦ": 1227,
      "ܨ": 1228,
      "ܩ": 1229,
      "ܪ": 1230,
      "ܫ": 1231,
      "ܬ": 1232,
      "ܵ": 1233,
      "ܶ": 1234,
      "ܸ": 1235,
      "ܹ": 1236,
      "ܼ": 1237,
      "݂": 1238,
      "ݒ": 1239,
      "ݢ": 1240,
      "ހ": 1241,
      "ނ": 1242,
      "ރ": 1243,
      "ކ": 1244,
      "އ": 1245,
      "ވ": 1246,
      "މ": 1247,
      "ފ": 1248,
      "ދ": 1249,
      "ތ": 1250,
      "ލ": 1251,
      "ޔ": 1252,
      "ޙ": 1253,
      "ޝ": 1254,
      "ަ": 1255,
      "ާ": 1256,
      "ި": 1257,
      "ީ": 1258,
      "ު": 1259,
      "ެ": 1260,
      "ް": 1261,
      "ߏ": 1262,
      "ߒ": 1263,
      "ߞ": 1264,
      "ߺ": 1265,
      "ࡃ": 1266,
      "ँ": 1267,
      "ं": 1268,
      "ः": 1269,
      "अ": 1270,
      "आ": 1271,
      "इ": 1272,
      "ई": 1273,
      "उ": 1274,
      "ऊ": 1275,
      "ऋ": 1276,
      "ए": 1277,
      "ऐ": 1278,
      "ओ": 1279,
      "औ": 1280,
      "क": 1281,
      "ख": 1282,
      "ग": 1283,
      "घ": 1284,
      "ङ": 1285,
      "च": 1286,
      "छ": 1287,
      "ज": 1288,
      "झ": 1289,
      "ञ": 1290,
      "ट": 1291,
      "ठ": 1292,
      "ड": 1293,
      "ढ": 1294,
      "ण": 1295,
      "त": 1296,
      "थ": 1297,
      "द": 1298,
      "ध": 1299,
      "न": 1300,
      "प": 1301,
      "फ": 1302,
      "ब": 1303,
      "भ": 1304,
      "म": 1305,
      "य": 1306,
      "र": 1307,
      "ल": 1308,
      "ळ": 1309,
      "व": 1310,
      "श": 1311,
      "ष": 1312,
      "स": 1313,
      "ह": 1314,
      "़": 1315,
      "ा": 1316,
      "ि": 1317,
      "ी": 1318,
      "ु": 1319,
      "ू": 1320,
      "ृ": 1321,
      "ॅ": 1322,
      "े": 1323,
      "ै": 1324,
      "ॉ": 1325,
      "ॊ": 1326,
      "ो": 1327,
      "ौ": 1328,
      "्": 1329,
      "ॐ": 1330,
      "॑": 1331,
      "ड़": 1332,
      "।": 1333,
      "०": 1334,
      "१": 1335,
      "२": 1336,
      "३": 1337,
      "४": 1338,
      "५": 1339,
      "६": 1340,
      "७": 1341,
      "८": 1342,
      "९": 1343,
      "॰": 1344,
      "ঁ": 1345,
      "ং": 1346,
      "অ": 1347,
      "আ": 1348,
      "ই": 1349,
      "ঈ": 1350,
      "উ": 1351,
      "ও": 1352,
      "ক": 1353,
      "খ": 1354,
      "গ": 1355,
      "ঘ": 1356,
      "ঙ": 1357,
      "চ": 1358,
      "ছ": 1359,
      "জ": 1360,
      "ট": 1361,
      "ঠ": 1362,
      "ড": 1363,
      "ঢ": 1364,
      "ণ": 1365,
      "ত": 1366,
      "থ": 1367,
      "দ": 1368,
      "ধ": 1369,
      "ন": 1370,
      "প": 1371,
      "ফ": 1372,
      "ব": 1373,
      "ভ": 1374,
      "ম": 1375,
      "য": 1376,
      "র": 1377,
      "ল": 1378,
      "শ": 1379,
      "ষ": 1380,
      "স": 1381,
      "হ": 1382,
      "়": 1383,
      "া": 1384,
      "ি": 1385,
      "ী": 1386,
      "ু": 1387,
      "ূ": 1388,
      "ে": 1389,
      "ো": 1390,
      "্": 1391,
      "ৎ": 1392,
      "৮": 1393,
      "ৰ": 1394,
      "ৱ": 1395,
      "਀": 1396,
      "ਂ": 1397,
      "ਅ": 1398,
      "ਆ": 1399,
      "ਉ": 1400,
      "ਏ": 1401,
      "ਕ": 1402,
      "ਖ": 1403,
      "ਗ": 1404,
      "ਘ": 1405,
      "ਚ": 1406,
      "ਛ": 1407,
      "ਜ": 1408,
      "ਟ": 1409,
      "ਡ": 1410,
      "ਣ": 1411,
      "ਤ": 1412,
      "ਦ": 1413,
      "ਧ": 1414,
      "ਨ": 1415,
      "ਪ": 1416,
      "ਬ": 1417,
      "ਭ": 1418,
      "ਮ": 1419,
      "ਯ": 1420,
      "ਰ": 1421,
      "ਲ": 1422,
      "ਵ": 1423,
      "ਸ਼": 1424,
      "ਸ": 1425,
      "ਹ": 1426,
      "਼": 1427,
      "ਾ": 1428,
      "ਿ": 1429,
      "ੀ": 1430,
      "ੁ": 1431,
      "ੂ": 1432,
      "ੇ": 1433,
      "ੈ": 1434,
      "ੋ": 1435,
      "੍": 1436,
      "ੜ": 1437,
      "੧": 1438,
      "੬": 1439,
      "੮": 1440,
      "੯": 1441,
      "ੰ": 1442,
      "ੱ": 1443,
      "ં": 1444,
      "અ": 1445,
      "આ": 1446,
      "ઈ": 1447,
      "ઉ": 1448,
      "ઔ": 1449,
      "ક": 1450,
      "ગ": 1451,
      "ચ": 1452,
      "છ": 1453,
      "જ": 1454,
      "ટ": 1455,
      "ઠ": 1456,
      "ડ": 1457,
      "ણ": 1458,
      "ત": 1459,
      "થ": 1460,
      "દ": 1461,
      "ધ": 1462,
      "ન": 1463,
      "પ": 1464,
      "બ": 1465,
      "ભ": 1466,
      "મ": 1467,
      "ય": 1468,
      "ર": 1469,
      "લ": 1470,
      "વ": 1471,
      "ષ": 1472,
      "સ": 1473,
      "હ": 1474,
      "ા": 1475,
      "િ": 1476,
      "ી": 1477,
      "ુ": 1478,
      "ે": 1479,
      "ો": 1480,
      "્": 1481,
      "ଆ": 1482,
      "ଓ": 1483,
      "କ": 1484,
      "ଛ": 1485,
      "ଡ": 1486,
      "ଦ": 1487,
      "ପ": 1488,
      "ବ": 1489,
      "ମ": 1490,
      "ର": 1491,
      "ଶ": 1492,
      "଼": 1493,
      "ା": 1494,
      "ି": 1495,
      "ୁ": 1496,
      "ୋ": 1497,
      "୪": 1498,
      "ஃ": 1499,
      "அ": 1500,
      "இ": 1501,
      "ஈ": 1502,
      "உ": 1503,
      "எ": 1504,
      "ஏ": 1505,
      "ஓ": 1506,
      "க": 1507,
      "ங": 1508,
      "ச": 1509,
      "ஜ": 1510,
      "ட": 1511,
      "ண": 1512,
      "த": 1513,
      "ந": 1514,
      "ன": 1515,
      "ப": 1516,
      "ம": 1517,
      "ய": 1518,
      "ர": 1519,
      "ற": 1520,
      "ல": 1521,
      "ள": 1522,
      "ழ": 1523,
      "வ": 1524,
      "ஷ": 1525,
      "ஸ": 1526,
      "ஹ": 1527,
      "ா": 1528,
      "ி": 1529,
      "ீ": 1530,
      "ு": 1531,
      "ூ": 1532,
      "ெ": 1533,
      "ே": 1534,
      "ை": 1535,
      "ொ": 1536,
      "ோ": 1537,
      "்": 1538,
      "ం": 1539,
      "ఆ": 1540,
      "ఇ": 1541,
      "ఉ": 1542,
      "ఎ": 1543,
      "క": 1544,
      "ఖ": 1545,
      "గ": 1546,
      "చ": 1547,
      "జ": 1548,
      "ట": 1549,
      "డ": 1550,
      "ణ": 1551,
      "త": 1552,
      "ద": 1553,
      "ధ": 1554,
      "న": 1555,
      "ప": 1556,
      "బ": 1557,
      "భ": 1558,
      "మ": 1559,
      "య": 1560,
      "ర": 1561,
      "ల": 1562,
      "ళ": 1563,
      "వ": 1564,
      "శ": 1565,
      "ష": 1566,
      "స": 1567,
      "హ": 1568,
      "ా": 1569,
      "ి": 1570,
      "ీ": 1571,
      "ు": 1572,
      "ూ": 1573,
      "ృ": 1574,
      "ె": 1575,
      "ే": 1576,
      "ై": 1577,
      "ొ": 1578,
      "ో": 1579,
      "్": 1580,
      "ಂ": 1581,
      "ಅ": 1582,
      "ಉ": 1583,
      "ಐ": 1584,
      "ಕ": 1585,
      "ಖ": 1586,
      "ಗ": 1587,
      "ಘ": 1588,
      "ಚ": 1589,
      "ಜ": 1590,
      "ಟ": 1591,
      "ಠ": 1592,
      "ಡ": 1593,
      "ಣ": 1594,
      "ತ": 1595,
      "ಥ": 1596,
      "ದ": 1597,
      "ಧ": 1598,
      "ನ": 1599,
      "ಪ": 1600,
      "ಬ": 1601,
      "ಭ": 1602,
      "ಮ": 1603,
      "ಯ": 1604,
      "ರ": 1605,
      "ಲ": 1606,
      "ಳ": 1607,
      "ವ": 1608,
      "ಶ": 1609,
      "ಷ": 1610,
      "ಸ": 1611,
      "ಹ": 1612,
      "ಾ": 1613,
      "ಿ": 1614,
      "ೀ": 1615,
      "ು": 1616,
      "ೂ": 1617,
      "ೃ": 1618,
      "ೆ": 1619,
      "ೇ": 1620,
      "ೈ": 1621,
      "ೊ": 1622,
      "ೋ": 1623,
      "್": 1624,
      "ೕ": 1625,
      "೧": 1626,
      "೩": 1627,
      "೮": 1628,
      "೯": 1629,
      "ം": 1630,
      "അ": 1631,
      "ആ": 1632,
      "ക": 1633,
      "ഗ": 1634,
      "ഘ": 1635,
      "ങ": 1636,
      "ച": 1637,
      "ജ": 1638,
      "ഞ": 1639,
      "ട": 1640,
      "ണ": 1641,
      "ത": 1642,
      "ദ": 1643,
      "ധ": 1644,
      "ന": 1645,
      "പ": 1646,
      "ബ": 1647,
      "ഭ": 1648,
      "മ": 1649,
      "യ": 1650,
      "ര": 1651,
      "റ": 1652,
      "ല": 1653,
      "ള": 1654,
      "ഴ": 1655,
      "വ": 1656,
      "ശ": 1657,
      "ഷ": 1658,
      "സ": 1659,
      "ഹ": 1660,
      "ാ": 1661,
      "ി": 1662,
      "ീ": 1663,
      "ു": 1664,
      "ൃ": 1665,
      "െ": 1666,
      "േ": 1667,
      "ൈ": 1668,
      "ൊ": 1669,
      "ോ": 1670,
      "്": 1671,
      "ൻ": 1672,
      "ൾ": 1673,
      "ං": 1674,
      "අ": 1675,
      "ආ": 1676,
      "ඊ": 1677,
      "ක": 1678,
      "ඛ": 1679,
      "ග": 1680,
      "ඝ": 1681,
      "ජ": 1682,
      "ට": 1683,
      "ඩ": 1684,
      "ඪ": 1685,
      "ණ": 1686,
      "ත": 1687,
      "ද": 1688,
      "න": 1689,
      "ප": 1690,
      "ඵ": 1691,
      "බ": 1692,
      "භ": 1693,
      "ම": 1694,
      "ය": 1695,
      "ර": 1696,
      "ල": 1697,
      "ව": 1698,
      "ශ": 1699,
      "ෂ": 1700,
      "ස": 1701,
      "හ": 1702,
      "ළ": 1703,
      "්": 1704,
      "ා": 1705,
      "ි": 1706,
      "ී": 1707,
      "ු": 1708,
      "ෙ": 1709,
      "ේ": 1710,
      "ෛ": 1711,
      "ො": 1712,
      "ෝ": 1713,
      "ก": 1714,
      "ข": 1715,
      "ฃ": 1716,
      "ค": 1717,
      "ง": 1718,
      "จ": 1719,
      "ฉ": 1720,
      "ช": 1721,
      "ซ": 1722,
      "ญ": 1723,
      "ฑ": 1724,
      "ฒ": 1725,
      "ณ": 1726,
      "ด": 1727,
      "ต": 1728,
      "ถ": 1729,
      "ท": 1730,
      "ธ": 1731,
      "น": 1732,
      "บ": 1733,
      "ป": 1734,
      "ผ": 1735,
      "ฝ": 1736,
      "พ": 1737,
      "ฟ": 1738,
      "ภ": 1739,
      "ม": 1740,
      "ย": 1741,
      "ร": 1742,
      "ฤ": 1743,
      "ล": 1744,
      "ว": 1745,
      "ศ": 1746,
      "ษ": 1747,
      "ส": 1748,
      "ห": 1749,
      "ฬ": 1750,
      "อ": 1751,
      "ฮ": 1752,
      "ฯ": 1753,
      "ะ": 1754,
      "ั": 1755,
      "า": 1756,
      "ำ": 1757,
      "ิ": 1758,
      "ี": 1759,
      "ึ": 1760,
      "ื": 1761,
      "ุ": 1762,
      "ู": 1763,
      "เ": 1764,
      "แ": 1765,
      "โ": 1766,
      "ใ": 1767,
      "ไ": 1768,
      "ๆ": 1769,
      "็": 1770,
      "่": 1771,
      "้": 1772,
      "๊": 1773,
      "๋": 1774,
      "์": 1775,
      "๎": 1776,
      "ກ": 1777,
      "ຂ": 1778,
      "ຄ": 1779,
      "ງ": 1780,
      "ຈ": 1781,
      "ຊ": 1782,
      "ຍ": 1783,
      "ດ": 1784,
      "ຕ": 1785,
      "ຖ": 1786,
      "ທ": 1787,
      "ນ": 1788,
      "ບ": 1789,
      "ປ": 1790,
      "ຜ": 1791,
      "ພ": 1792,
      "ມ": 1793,
      "ຣ": 1794,
      "ລ": 1795,
      "ວ": 1796,
      "ສ": 1797,
      "ຫ": 1798,
      "ອ": 1799,
      "ະ": 1800,
      "ັ": 1801,
      "າ": 1802,
      "ຳ": 1803,
      "ິ": 1804,
      "ີ": 1805,
      "ື": 1806,
      "ຸ": 1807,
      "ູ": 1808,
      "ົ": 1809,
      "ຼ": 1810,
      "ຽ": 1811,
      "ເ": 1812,
      "ແ": 1813,
      "ໂ": 1814,
      "ໄ": 1815,
      "່": 1816,
      "້": 1817,
      "ໍ": 1818,
      "་": 1819,
      "།": 1820,
      "ཀ": 1821,
      "ཁ": 1822,
      "ག": 1823,
      "ང": 1824,
      "ཆ": 1825,
      "ཉ": 1826,
      "ཏ": 1827,
      "ཐ": 1828,
      "ད": 1829,
      "ན": 1830,
      "པ": 1831,
      "ཕ": 1832,
      "བ": 1833,
      "མ": 1834,
      "ཙ": 1835,
      "ཚ": 1836,
      "ཛ": 1837,
      "ཞ": 1838,
      "འ": 1839,
      "ཡ": 1840,
      "ར": 1841,
      "ལ": 1842,
      "ཤ": 1843,
      "ས": 1844,
      "ཨ": 1845,
      "ཱ": 1846,
      "ི": 1847,
      "ུ": 1848,
      "ེ": 1849,
      "ོ": 1850,
      "ྐ": 1851,
      "ྒ": 1852,
      "ྔ": 1853,
      "ྗ": 1854,
      "ྟ": 1855,
      "ྡ": 1856,
      "ྤ": 1857,
      "ྨ": 1858,
      "ྩ": 1859,
      "ྫ": 1860,
      "ྭ": 1861,
      "ྱ": 1862,
      "ྲ": 1863,
      "ླ": 1864,
      "ྷ": 1865,
      "က": 1866,
      "ခ": 1867,
      "ဂ": 1868,
      "င": 1869,
      "စ": 1870,
      "ဆ": 1871,
      "ဉ": 1872,
      "ည": 1873,
      "တ": 1874,
      "ထ": 1875,
      "ဒ": 1876,
      "န": 1877,
      "ပ": 1878,
      "ဖ": 1879,
      "မ": 1880,
      "ယ": 1881,
      "ရ": 1882,
      "ဝ": 1883,
      "သ": 1884,
      "ဟ": 1885,
      "အ": 1886,
      "ါ": 1887,
      "ာ": 1888,
      "ိ": 1889,
      "ီ": 1890,
      "ု": 1891,
      "ူ": 1892,
      "ေ": 1893,
      "ဲ": 1894,
      "ံ": 1895,
      "့": 1896,
      "း": 1897,
      "်": 1898,
      "ျ": 1899,
      "ြ": 1900,
      "ွ": 1901,
      "ှ": 1902,
      "ა": 1903,
      "ბ": 1904,
      "გ": 1905,
      "დ": 1906,
      "ე": 1907,
      "ვ": 1908,
      "ზ": 1909,
      "თ": 1910,
      "ი": 1911,
      "კ": 1912,
      "ლ": 1913,
      "მ": 1914,
      "ნ": 1915,
      "ო": 1916,
      "პ": 1917,
      "ჟ": 1918,
      "რ": 1919,
      "ს": 1920,
      "ტ": 1921,
      "უ": 1922,
      "ფ": 1923,
      "ქ": 1924,
      "ღ": 1925,
      "ყ": 1926,
      "შ": 1927,
      "ჩ": 1928,
      "ც": 1929,
      "ძ": 1930,
      "წ": 1931,
      "ჭ": 1932,
      "ხ": 1933,
      "ჯ": 1934,
      "ჷ": 1935,
      "ᄀ": 1936,
      "ᄁ": 1937,
      "ᄂ": 1938,
      "ᄃ": 1939,
      "ᄄ": 1940,
      "ᄅ": 1941,
      "ᄆ": 1942,
      "ᄇ": 1943,
      "ᄉ": 1944,
      "ᄊ": 1945,
      "ᄋ": 1946,
      "ᄌ": 1947,
      "ᄍ": 1948,
      "ᄎ": 1949,
      "ᄏ": 1950,
      "ᄐ": 1951,
      "ᄑ": 1952,
      "ᄒ": 1953,
      "ᅡ": 1954,
      "ᅢ": 1955,
      "ᅥ": 1956,
      "ᅦ": 1957,
      "ᅧ": 1958,
      "ᅩ": 1959,
      "ᅪ": 1960,
      "ᅮ": 1961,
      "ᅰ": 1962,
      "ᅱ": 1963,
      "ᅲ": 1964,
      "ᅳ": 1965,
      "ᅴ": 1966,
      "ᅵ": 1967,
      "ᆞ": 1968,
      "ᆨ": 1969,
      "ᆫ": 1970,
      "ᆮ": 1971,
      "ᆯ": 1972,
      "ᆷ": 1973,
      "ᆸ": 1974,
      "ᆺ": 1975,
      "ᆼ": 1976,
      "ᇁ": 1977,
      "ሀ": 1978,
      "ሁ": 1979,
      "ሃ": 1980,
      "ህ": 1981,
      "ለ": 1982,
      "ላ": 1983,
      "ሌ": 1984,
      "ል": 1985,
      "ሐ": 1986,
      "ሕ": 1987,
      "መ": 1988,
      "ማ": 1989,
      "ሜ": 1990,
      "ም": 1991,
      "ሞ": 1992,
      "ሠ": 1993,
      "ረ": 1994,
      "ሪ": 1995,
      "ራ": 1996,
      "ሬ": 1997,
      "ር": 1998,
      "ሮ": 1999,
      "ሰ": 2000,
      "ሳ": 2001,
      "ሴ": 2002,
      "ስ": 2003,
      "ሶ": 2004,
      "ሸ": 2005,
      "ሺ": 2006,
      "ሻ": 2007,
      "ሼ": 2008,
      "ቀ": 2009,
      "ቁ": 2010,
      "ቂ": 2011,
      "ቅ": 2012,
      "ቆ": 2013,
      "ቐ": 2014,
      "በ": 2015,
      "ቡ": 2016,
      "ባ": 2017,
      "ቤ": 2018,
      "ብ": 2019,
      "ቦ": 2020,
      "ተ": 2021,
      "ቱ": 2022,
      "ቲ": 2023,
      "ታ": 2024,
      "ት": 2025,
      "ቶ": 2026,
      "ች": 2027,
      "ኃ": 2028,
      "ነ": 2029,
      "ኒ": 2030,
      "ና": 2031,
      "ኔ": 2032,
      "ን": 2033,
      "ኖ": 2034,
      "ኛ": 2035,
      "ኝ": 2036,
      "አ": 2037,
      "ኢ": 2038,
      "ኣ": 2039,
      "ኤ": 2040,
      "እ": 2041,
      "ኦ": 2042,
      "ከ": 2043,
      "ኩ": 2044,
      "ካ": 2045,
      "ክ": 2046,
      "ወ": 2047,
      "ዊ": 2048,
      "ዋ": 2049,
      "ው": 2050,
      "ዓ": 2051,
      "ዔ": 2052,
      "ዕ": 2053,
      "ዘ": 2054,
      "ዙ": 2055,
      "ዛ": 2056,
      "ዜ": 2057,
      "ዝ": 2058,
      "የ": 2059,
      "ዩ": 2060,
      "ያ": 2061,
      "ይ": 2062,
      "ዮ": 2063,
      "ደ": 2064,
      "ዱ": 2065,
      "ዲ": 2066,
      "ዳ": 2067,
      "ድ": 2068,
      "ዶ": 2069,
      "ጅ": 2070,
      "ገ": 2071,
      "ጉ": 2072,
      "ጊ": 2073,
      "ጋ": 2074,
      "ግ": 2075,
      "ጐ": 2076,
      "ጠ": 2077,
      "ጢ": 2078,
      "ጣ": 2079,
      "ጤ": 2080,
      "ጥ": 2081,
      "ጳ": 2082,
      "ጵ": 2083,
      "ፈ": 2084,
      "ፊ": 2085,
      "ፋ": 2086,
      "ፍ": 2087,
      "ፖ": 2088,
      "፡": 2089,
      "Ꭲ": 2090,
      "Ꭴ": 2091,
      "Ꮃ": 2092,
      "Ꮑ": 2093,
      "Ꮕ": 2094,
      "Ꮵ": 2095,
      "Ꮺ": 2096,
      "ᐃ": 2097,
      "ᐅ": 2098,
      "ᐊ": 2099,
      "ᐍ": 2100,
      "ᐏ": 2101,
      "ᐘ": 2102,
      "ᐢ": 2103,
      "ᐣ": 2104,
      "ᐦ": 2105,
      "ᐩ": 2106,
      "ᐱ": 2107,
      "ᐳ": 2108,
      "ᑎ": 2109,
      "ᑐ": 2110,
      "ᑑ": 2111,
      "ᑖ": 2112,
      "ᑦ": 2113,
      "ᑭ": 2114,
      "ᑮ": 2115,
      "ᑲ": 2116,
      "ᑳ": 2117,
      "ᒃ": 2118,
      "ᒋ": 2119,
      "ᓀ": 2120,
      "ᓂ": 2121,
      "ᓄ": 2122,
      "ᓇ": 2123,
      "ᓐ": 2124,
      "ᓗ": 2125,
      "ᓯ": 2126,
      "ᓱ": 2127,
      "ᔭ": 2128,
      "ᕈ": 2129,
      "ᕋ": 2130,
      "ᕗ": 2131,
      "ᕙ": 2132,
      "ᕿ": 2133,
      "ᖃ": 2134,
      "ᖅ": 2135,
      "ᖏ": 2136,
      "ᖓ": 2137,
      "ᚠ": 2138,
      "ᚢ": 2139,
      "ᚦ": 2140,
      "ᚬ": 2141,
      "ᚮ": 2142,
      "ᚯ": 2143,
      "ᚱ": 2144,
      "ᚲ": 2145,
      "ᚴ": 2146,
      "ᚺ": 2147,
      "ᚾ": 2148,
      "ᛅ": 2149,
      "ᛏ": 2150,
      "ᛖ": 2151,
      "ᛘ": 2152,
      "ᜈ": 2153,
      "ᜉ": 2154,
      "ᜍ": 2155,
      "ᜎ": 2156,
      "ᜒ": 2157,
      "ᜓ": 2158,
      "᜶": 2159,
      "ក": 2160,
      "ខ": 2161,
      "ង": 2162,
      "ច": 2163,
      "ជ": 2164,
      "ញ": 2165,
      "ដ": 2166,
      "ឋ": 2167,
      "ណ": 2168,
      "ត": 2169,
      "ទ": 2170,
      "ធ": 2171,
      "ន": 2172,
      "ប": 2173,
      "ព": 2174,
      "ភ": 2175,
      "ម": 2176,
      "យ": 2177,
      "រ": 2178,
      "ស": 2179,
      "ហ": 2180,
      "អ": 2181,
      "ា": 2182,
      "ិ": 2183,
      "ី": 2184,
      "ឺ": 2185,
      "ុ": 2186,
      "ៀ": 2187,
      "េ": 2188,
      "ែ": 2189,
      "ោ": 2190,
      "ំ": 2191,
      "ះ": 2192,
      "៉": 2193,
      "់": 2194,
      "៏": 2195,
      "័": 2196,
      "្": 2197,
      "ᠡ": 2198,
      "ᠢ": 2199,
      "ᠦ": 2200,
      "ᠨ": 2201,
      "ᠮ": 2202,
      "ᠲ": 2203,
      "ᠵ": 2204,
      "ᮏ": 2205,
      "ᴀ": 2206,
      "ᴅ": 2207,
      "ᴇ": 2208,
      "ᴊ": 2209,
      "ᴍ": 2210,
      "ᴏ": 2211,
      "ᴐ": 2212,
      "ᴘ": 2213,
      "ᴛ": 2214,
      "ᴜ": 2215,
      "ᴨ": 2216,
      "ᴬ": 2217,
      "ᴱ": 2218,
      "ᴵ": 2219,
      "ᴼ": 2220,
      "ᴿ": 2221,
      "ᵀ": 2222,
      "ᵊ": 2223,
      "ᵘ": 2224,
      "ᵝ": 2225,
      "ᵹ": 2226,
      "ᵻ": 2227,
      "ᶑ": 2228,
      "ᶣ": 2229,
      "᷉": 2230,
      "ḁ": 2231,
      "ḃ": 2232,
      "ḇ": 2233,
      "Ḍ": 2234,
      "ḍ": 2235,
      "Ḏ": 2236,
      "ḏ": 2237,
      "ḓ": 2238,
      "ḗ": 2239,
      "ḛ": 2240,
      "Ḡ": 2241,
      "ḡ": 2242,
      "ḣ": 2243,
      "Ḥ": 2244,
      "ḥ": 2245,
      "Ḩ": 2246,
      "ḩ": 2247,
      "Ḫ": 2248,
      "ḫ": 2249,
      "ḭ": 2250,
      "Ḱ": 2251,
      "ḱ": 2252,
      "ḳ": 2253,
      "Ḵ": 2254,
      "ḵ": 2255,
      "Ḷ": 2256,
      "ḷ": 2257,
      "ḻ": 2258,
      "ḽ": 2259,
      "Ḿ": 2260,
      "ḿ": 2261,
      "ṁ": 2262,
      "ṃ": 2263,
      "ṅ": 2264,
      "ṇ": 2265,
      "ṉ": 2266,
      "ṋ": 2267,
      "Ṑ": 2268,
      "ṓ": 2269,
      "ṕ": 2270,
      "Ṗ": 2271,
      "ṗ": 2272,
      "ṙ": 2273,
      "Ṛ": 2274,
      "ṛ": 2275,
      "ṟ": 2276,
      "Ṣ": 2277,
      "ṣ": 2278,
      "ṫ": 2279,
      "Ṭ": 2280,
      "ṭ": 2281,
      "Ṯ": 2282,
      "ṯ": 2283,
      "ṱ": 2284,
      "ṳ": 2285,
      "ṵ": 2286,
      "ṷ": 2287,
      "ṿ": 2288,
      "Ẋ": 2289,
      "ẋ": 2290,
      "ẏ": 2291,
      "ẑ": 2292,
      "Ẓ": 2293,
      "ẓ": 2294,
      "ẖ": 2295,
      "ẗ": 2296,
      "ẚ": 2297,
      "ẞ": 2298,
      "ạ": 2299,
      "ả": 2300,
      "ấ": 2301,
      "ầ": 2302,
      "ẩ": 2303,
      "ẫ": 2304,
      "ậ": 2305,
      "ắ": 2306,
      "ằ": 2307,
      "ẵ": 2308,
      "ặ": 2309,
      "ẹ": 2310,
      "ẻ": 2311,
      "ẽ": 2312,
      "ế": 2313,
      "ề": 2314,
      "ể": 2315,
      "Ễ": 2316,
      "ễ": 2317,
      "ệ": 2318,
      "ỉ": 2319,
      "Ị": 2320,
      "ị": 2321,
      "Ọ": 2322,
      "ọ": 2323,
      "ỏ": 2324,
      "ố": 2325,
      "ồ": 2326,
      "ổ": 2327,
      "ỗ": 2328,
      "ộ": 2329,
      "ớ": 2330,
      "ờ": 2331,
      "ở": 2332,
      "ợ": 2333,
      "ụ": 2334,
      "ủ": 2335,
      "ứ": 2336,
      "ừ": 2337,
      "ử": 2338,
      "ữ": 2339,
      "ự": 2340,
      "ỳ": 2341,
      "ỵ": 2342,
      "ỷ": 2343,
      "ỹ": 2344,
      "ἀ": 2345,
      "ἁ": 2346,
      "ἂ": 2347,
      "ἃ": 2348,
      "ἄ": 2349,
      "ἅ": 2350,
      "ἆ": 2351,
      "Ἀ": 2352,
      "Ἁ": 2353,
      "Ἄ": 2354,
      "Ἅ": 2355,
      "ἐ": 2356,
      "ἑ": 2357,
      "ἒ": 2358,
      "ἓ": 2359,
      "ἔ": 2360,
      "ἕ": 2361,
      "Ἐ": 2362,
      "Ἑ": 2363,
      "Ἔ": 2364,
      "Ἕ": 2365,
      "ἠ": 2366,
      "ἡ": 2367,
      "ἤ": 2368,
      "ἥ": 2369,
      "ἦ": 2370,
      "ἧ": 2371,
      "Ἠ": 2372,
      "Ἡ": 2373,
      "Ἤ": 2374,
      "Ἥ": 2375,
      "ἰ": 2376,
      "ἱ": 2377,
      "ἴ": 2378,
      "ἵ": 2379,
      "ἶ": 2380,
      "ἷ": 2381,
      "Ἰ": 2382,
      "Ἱ": 2383,
      "Ἳ": 2384,
      "Ἴ": 2385,
      "Ἵ": 2386,
      "Ἶ": 2387,
      "ὀ": 2388,
      "ὁ": 2389,
      "ὂ": 2390,
      "ὃ": 2391,
      "ὄ": 2392,
      "ὅ": 2393,
      "὆": 2394,
      "Ὀ": 2395,
      "Ὁ": 2396,
      "Ὄ": 2397,
      "ὐ": 2398,
      "ὑ": 2399,
      "ὔ": 2400,
      "ὕ": 2401,
      "ὖ": 2402,
      "Ὑ": 2403,
      "Ὓ": 2404,
      "Ὕ": 2405,
      "ὠ": 2406,
      "ὡ": 2407,
      "ὢ": 2408,
      "ὤ": 2409,
      "ὥ": 2410,
      "ὦ": 2411,
      "Ὠ": 2412,
      "Ὤ": 2413,
      "Ὥ": 2414,
      "Ὧ": 2415,
      "ὰ": 2416,
      "ά": 2417,
      "ὲ": 2418,
      "έ": 2419,
      "ὴ": 2420,
      "ή": 2421,
      "ὶ": 2422,
      "ί": 2423,
      "ὸ": 2424,
      "ό": 2425,
      "ὺ": 2426,
      "ύ": 2427,
      "ὼ": 2428,
      "ώ": 2429,
      "ᾍ": 2430,
      "ᾛ": 2431,
      "ᾠ": 2432,
      "ᾰ": 2433,
      "ᾱ": 2434,
      "ᾳ": 2435,
      "ᾴ": 2436,
      "ᾶ": 2437,
      "ᾷ": 2438,
      "᾽": 2439,
      "᾿": 2440,
      "ῃ": 2441,
      "ῆ": 2442,
      "ῇ": 2443,
      "῎": 2444,
      "ῑ": 2445,
      "ῖ": 2446,
      "ῠ": 2447,
      "ῡ": 2448,
      "ῤ": 2449,
      "ῥ": 2450,
      "ῦ": 2451,
      "Ῥ": 2452,
      "ῳ": 2453,
      "ῴ": 2454,
      "ῶ": 2455,
      "ῷ": 2456,
      "῾": 2457,
      "​": 2458,
      "‌": 2459,
      "‍": 2460,
      "‎": 2461,
      "‏": 2462,
      "‐": 2463,
      "‑": 2464,
      "‒": 2465,
      "–": 2466,
      "—": 2467,
      "―": 2468,
      "‖": 2469,
      "‘": 2470,
      "’": 2471,
      "‚": 2472,
      "‛": 2473,
      "“": 2474,
      "”": 2475,
      "„": 2476,
      "‟": 2477,
      "†": 2478,
      "‡": 2479,
      "•": 2480,
      "‣": 2481,
      "‥": 2482,
      "…": 2483,
      "‧": 2484,
      "‪": 2485,
      "‫": 2486,
      "‬": 2487,
      "‭": 2488,
      "‮": 2489,
      "‰": 2490,
      "‱": 2491,
      "′": 2492,
      "″": 2493,
      "‹": 2494,
      "›": 2495,
      "※": 2496,
      "‼": 2497,
      "‽": 2498,
      "‿": 2499,
      "⁂": 2500,
      "⁃": 2501,
      "⁄": 2502,
      "⁓": 2503,
      "⁠": 2504,
      "⁡": 2505,
      "⁢": 2506,
      "⁬": 2507,
      "⁭": 2508,
      "⁰": 2509,
      "ⁱ": 2510,
      "⁴": 2511,
      "⁵": 2512,
      "⁶": 2513,
      "⁷": 2514,
      "⁸": 2515,
      "⁹": 2516,
      "⁻": 2517,
      "⁼": 2518,
      "ⁿ": 2519,
      "₀": 2520,
      "₁": 2521,
      "₂": 2522,
      "₃": 2523,
      "₄": 2524,
      "₅": 2525,
      "₈": 2526,
      "₉": 2527,
      "ₑ": 2528,
      "₠": 2529,
      "₡": 2530,
      "₣": 2531,
      "₤": 2532,
      "₦": 2533,
      "₧": 2534,
      "₨": 2535,
      "₩": 2536,
      "₪": 2537,
      "₫": 2538,
      "€": 2539,
      "₭": 2540,
      "₮": 2541,
      "₰": 2542,
      "₱": 2543,
      "₲": 2544,
      "₴": 2545,
      "₷": 2546,
      "₹": 2547,
      "₻": 2548,
      "₼": 2549,
      "₽": 2550,
      "₾": 2551,
      "₿": 2552,
      "⃑": 2553,
      "⃝": 2554,
      "ℂ": 2555,
      "℃": 2556,
      "℅": 2557,
      "℈": 2558,
      "℉": 2559,
      "ℋ": 2560,
      "ℍ": 2561,
      "ℏ": 2562,
      "ℓ": 2563,
      "ℕ": 2564,
      "№": 2565,
      "℘": 2566,
      "ℚ": 2567,
      "ℛ": 2568,
      "ℜ": 2569,
      "ℝ": 2570,
      "℞": 2571,
      "℟": 2572,
      "™": 2573,
      "ℤ": 2574,
      "℥": 2575,
      "Ω": 2576,
      "ℨ": 2577,
      "Å": 2578,
      "ℬ": 2579,
      "ℰ": 2580,
      "ℱ": 2581,
      "ℵ": 2582,
      "ℶ": 2583,
      "⅓": 2584,
      "⅔": 2585,
      "⅕": 2586,
      "⅙": 2587,
      "⅛": 2588,
      "⅜": 2589,
      "⅞": 2590,
      "Ⅰ": 2591,
      "Ⅱ": 2592,
      "Ⅲ": 2593,
      "Ⅳ": 2594,
      "Ⅴ": 2595,
      "Ⅵ": 2596,
      "Ⅶ": 2597,
      "Ⅷ": 2598,
      "Ⅹ": 2599,
      "Ⅻ": 2600,
      "Ⅼ": 2601,
      "ⅷ": 2602,
      "ⅼ": 2603,
      "ⅾ": 2604,
      "ↄ": 2605,
      "←": 2606,
      "↑": 2607,
      "→": 2608,
      "↓": 2609,
      "↔": 2610,
      "↕": 2611,
      "↗": 2612,
      "↘": 2613,
      "↙": 2614,
      "↝": 2615,
      "↠": 2616,
      "↤": 2617,
      "↦": 2618,
      "↩": 2619,
      "↳": 2620,
      "↴": 2621,
      "↵": 2622,
      "↶": 2623,
      "↷": 2624,
      "↹": 2625,
      "↾": 2626,
      "⇃": 2627,
      "⇄": 2628,
      "⇆": 2629,
      "⇌": 2630,
      "⇐": 2631,
      "⇒": 2632,
      "⇓": 2633,
      "⇔": 2634,
      "⇗": 2635,
      "⇝": 2636,
      "⇩": 2637,
      "∀": 2638,
      "∂": 2639,
      "∃": 2640,
      "∅": 2641,
      "∆": 2642,
      "∇": 2643,
      "∈": 2644,
      "∉": 2645,
      "∎": 2646,
      "∏": 2647,
      "∑": 2648,
      "−": 2649,
      "∕": 2650,
      "∖": 2651,
      "∗": 2652,
      "∘": 2653,
      "∙": 2654,
      "√": 2655,
      "∛": 2656,
      "∜": 2657,
      "∝": 2658,
      "∞": 2659,
      "∟": 2660,
      "∠": 2661,
      "∣": 2662,
      "∥": 2663,
      "∧": 2664,
      "∨": 2665,
      "∩": 2666,
      "∪": 2667,
      "∫": 2668,
      "∮": 2669,
      "∴": 2670,
      "∼": 2671,
      "≁": 2672,
      "≃": 2673,
      "≅": 2674,
      "≈": 2675,
      "≌": 2676,
      "≒": 2677,
      "≙": 2678,
      "≠": 2679,
      "≡": 2680,
      "≢": 2681,
      "≤": 2682,
      "≥": 2683,
      "≪": 2684,
      "≫": 2685,
      "≮": 2686,
      "≰": 2687,
      "≲": 2688,
      "≺": 2689,
      "≻": 2690,
      "≼": 2691,
      "⊂": 2692,
      "⊆": 2693,
      "⊇": 2694,
      "⊊": 2695,
      "⊑": 2696,
      "⊓": 2697,
      "⊕": 2698,
      "⊖": 2699,
      "⊗": 2700,
      "⊙": 2701,
      "⊛": 2702,
      "⊢": 2703,
      "⊥": 2704,
      "⊧": 2705,
      "⊨": 2706,
      "⊭": 2707,
      "⊰": 2708,
      "⊳": 2709,
      "⊻": 2710,
      "⊼": 2711,
      "⊽": 2712,
      "⋃": 2713,
      "⋅": 2714,
      "⋆": 2715,
      "⋯": 2716,
      "⌀": 2717,
      "⌈": 2718,
      "⌉": 2719,
      "⌊": 2720,
      "⌋": 2721,
      "⌘": 2722,
      "⌠": 2723,
      "⌥": 2724,
      "〈": 2725,
      "〉": 2726,
      "⎄": 2727,
      "⎕": 2728,
      "⎨": 2729,
      "⎬": 2730,
      "⎼": 2731,
      "⏏": 2732,
      "⏚": 2733,
      "⏱": 2734,
      "␢": 2735,
      "␣": 2736,
      "①": 2737,
      "②": 2738,
      "③": 2739,
      "④": 2740,
      "⑤": 2741,
      "⑥": 2742,
      "⑦": 2743,
      "⑧": 2744,
      "⑨": 2745,
      "⑩": 2746,
      "⑬": 2747,
      "⑭": 2748,
      "⑯": 2749,
      "⑰": 2750,
      "⑴": 2751,
      "⑵": 2752,
      "⑶": 2753,
      "⑷": 2754,
      "⑸": 2755,
      "⑹": 2756,
      "⑺": 2757,
      "⑻": 2758,
      "⑼": 2759,
      "⑽": 2760,
      "⑾": 2761,
      "⑿": 2762,
      "⒀": 2763,
      "⒁": 2764,
      "⒂": 2765,
      "Ⓐ": 2766,
      "Ⓑ": 2767,
      "Ⓙ": 2768,
      "Ⓚ": 2769,
      "Ⓜ": 2770,
      "Ⓝ": 2771,
      "Ⓡ": 2772,
      "Ⓢ": 2773,
      "Ⓣ": 2774,
      "Ⓧ": 2775,
      "Ⓩ": 2776,
      "ⓐ": 2777,
      "ⓑ": 2778,
      "ⓒ": 2779,
      "⓪": 2780,
      "⓸": 2781,
      "─": 2782,
      "│": 2783,
      "┃": 2784,
      "┌": 2785,
      "┐": 2786,
      "└": 2787,
      "┘": 2788,
      "├": 2789,
      "┤": 2790,
      "┬": 2791,
      "┴": 2792,
      "┼": 2793,
      "═": 2794,
      "╔": 2795,
      "╕": 2796,
      "╗": 2797,
      "╜": 2798,
      "╟": 2799,
      "╢": 2800,
      "╣": 2801,
      "╩": 2802,
      "╰": 2803,
      "▀": 2804,
      "█": 2805,
      "▌": 2806,
      "▒": 2807,
      "▓": 2808,
      "■": 2809,
      "□": 2810,
      "▦": 2811,
      "▪": 2812,
      "▫": 2813,
      "▬": 2814,
      "▲": 2815,
      "△": 2816,
      "▶": 2817,
      "▷": 2818,
      "▸": 2819,
      "►": 2820,
      "▼": 2821,
      "▽": 2822,
      "◁": 2823,
      "◄": 2824,
      "◆": 2825,
      "◇": 2826,
      "◊": 2827,
      "○": 2828,
      "◌": 2829,
      "◎": 2830,
      "●": 2831,
      "◐": 2832,
      "◒": 2833,
      "◔": 2834,
      "◕": 2835,
      "◡": 2836,
      "◦": 2837,
      "◯": 2838,
      "◾": 2839,
      "☀": 2840,
      "☃": 2841,
      "☄": 2842,
      "★": 2843,
      "☆": 2844,
      "☇": 2845,
      "☉": 2846,
      "☊": 2847,
      "☋": 2848,
      "☎": 2849,
      "☐": 2850,
      "☑": 2851,
      "☕": 2852,
      "☛": 2853,
      "☜": 2854,
      "☞": 2855,
      "☠": 2856,
      "☢": 2857,
      "☧": 2858,
      "☨": 2859,
      "☪": 2860,
      "☭": 2861,
      "☮": 2862,
      "☯": 2863,
      "☸": 2864,
      "☹": 2865,
      "☺": 2866,
      "☻": 2867,
      "☼": 2868,
      "☾": 2869,
      "☿": 2870,
      "♀": 2871,
      "♁": 2872,
      "♂": 2873,
      "♃": 2874,
      "♄": 2875,
      "♆": 2876,
      "♇": 2877,
      "♈": 2878,
      "♉": 2879,
      "♊": 2880,
      "♋": 2881,
      "♌": 2882,
      "♍": 2883,
      "♎": 2884,
      "♏": 2885,
      "♐": 2886,
      "♑": 2887,
      "♒": 2888,
      "♓": 2889,
      "♔": 2890,
      "♖": 2891,
      "♙": 2892,
      "♚": 2893,
      "♛": 2894,
      "♜": 2895,
      "♟": 2896,
      "♠": 2897,
      "♡": 2898,
      "♢": 2899,
      "♣": 2900,
      "♥": 2901,
      "♦": 2902,
      "♧": 2903,
      "♨": 2904,
      "♩": 2905,
      "♪": 2906,
      "♫": 2907,
      "♬": 2908,
      "♭": 2909,
      "♮": 2910,
      "♯": 2911,
      "♰": 2912,
      "♻": 2913,
      "♿": 2914,
      "⚑": 2915,
      "⚓": 2916,
      "⚔": 2917,
      "⚕": 2918,
      "⚖": 2919,
      "⚗": 2920,
      "⚜": 2921,
      "⚠": 2922,
      "⚢": 2923,
      "⚥": 2924,
      "⚭": 2925,
      "⛗": 2926,
      "⛨": 2927,
      "⛰": 2928,
      "⛴": 2929,
      "⛵": 2930,
      "⛷": 2931,
      "✅": 2932,
      "✇": 2933,
      "✈": 2934,
      "✉": 2935,
      "✋": 2936,
      "✌": 2937,
      "✍": 2938,
      "✎": 2939,
      "✏": 2940,
      "✒": 2941,
      "✓": 2942,
      "✔": 2943,
      "✗": 2944,
      "✙": 2945,
      "✝": 2946,
      "✞": 2947,
      "✠": 2948,
      "✡": 2949,
      "✨": 2950,
      "✩": 2951,
      "✪": 2952,
      "✫": 2953,
      "✮": 2954,
      "✱": 2955,
      "✳": 2956,
      "✶": 2957,
      "✿": 2958,
      "❄": 2959,
      "❗": 2960,
      "❞": 2961,
      "❣": 2962,
      "❤": 2963,
      "❶": 2964,
      "❷": 2965,
      "❸": 2966,
      "❹": 2967,
      "❺": 2968,
      "❻": 2969,
      "❼": 2970,
      "❽": 2971,
      "➀": 2972,
      "➁": 2973,
      "➆": 2974,
      "➜": 2975,
      "➝": 2976,
      "➞": 2977,
      "➠": 2978,
      "➡": 2979,
      "➢": 2980,
      "➣": 2981,
      "➤": 2982,
      "➧": 2983,
      "➻": 2984,
      "⟨": 2985,
      "⟩": 2986,
      "⟵": 2987,
      "⟶": 2988,
      "⟹": 2989,
      "⟺": 2990,
      "⤇": 2991,
      "⨀": 2992,
      "⨯": 2993,
      "⩽": 2994,
      "⩾": 2995,
      "⪖": 2996,
      "⪯": 2997,
      "⫶": 2998,
      "⬅": 2999,
      "⬈": 3000,
      "⭐": 3001,
      "⯅": 3002,
      "⯇": 3003,
      "⯈": 3004,
      "Ⰰ": 3005,
      "Ⰻ": 3006,
      "Ⱄ": 3007,
      "Ⱉ": 3008,
      "Ⱔ": 3009,
      "Ⱗ": 3010,
      "Ⱘ": 3011,
      "Ⱙ": 3012,
      "Ⱶ": 3013,
      "ⱼ": 3014,
      "Ⲁ": 3015,
      "ⲁ": 3016,
      "Ⲃ": 3017,
      "ⲃ": 3018,
      "Ⲅ": 3019,
      "ⲅ": 3020,
      "ⲇ": 3021,
      "ⲉ": 3022,
      "ⲍ": 3023,
      "ⲏ": 3024,
      "ⲑ": 3025,
      "ⲓ": 3026,
      "ⲕ": 3027,
      "ⲗ": 3028,
      "ⲙ": 3029,
      "ⲛ": 3030,
      "ⲝ": 3031,
      "ⲟ": 3032,
      "Ⲡ": 3033,
      "ⲡ": 3034,
      "ⲣ": 3035,
      "ⲥ": 3036,
      "ⲧ": 3037,
      "ⲩ": 3038,
      "ⲫ": 3039,
      "ⲭ": 3040,
      "ⲯ": 3041,
      "ⲱ": 3042,
      "ⳤ": 3043,
      "ⴰ": 3044,
      "ⴱ": 3045,
      "ⴳ": 3046,
      "ⴷ": 3047,
      "ⴹ": 3048,
      "ⴻ": 3049,
      "ⴼ": 3050,
      "ⴽ": 3051,
      "ⵃ": 3052,
      "ⵄ": 3053,
      "ⵉ": 3054,
      "ⵍ": 3055,
      "ⵎ": 3056,
      "ⵏ": 3057,
      "ⵓ": 3058,
      "ⵔ": 3059,
      "ⵕ": 3060,
      "ⵖ": 3061,
      "ⵗ": 3062,
      "ⵙ": 3063,
      "ⵚ": 3064,
      "ⵛ": 3065,
      "ⵜ": 3066,
      "ⵝ": 3067,
      "ⵟ": 3068,
      "ⵡ": 3069,
      "ⵢ": 3070,
      "ⵣ": 3071,
      "ⵯ": 3072,
      "⸗": 3073,
      "⻏": 3074,
      "⼀": 3075,
      "⿦": 3076,
      "、": 3077,
      "。": 3078,
      "々": 3079,
      "〇": 3080,
      "〈": 3081,
      "〉": 3082,
      "《": 3083,
      "》": 3084,
      "「": 3085,
      "」": 3086,
      "『": 3087,
      "』": 3088,
      "【": 3089,
      "】": 3090,
      "〒": 3091,
      "〔": 3092,
      "〕": 3093,
      "〜": 3094,
      "〡": 3095,
      "〢": 3096,
      "〣": 3097,
      "〤": 3098,
      "〽": 3099,
      "ぁ": 3100,
      "あ": 3101,
      "ぃ": 3102,
      "い": 3103,
      "う": 3104,
      "ぇ": 3105,
      "え": 3106,
      "お": 3107,
      "か": 3108,
      "が": 3109,
      "き": 3110,
      "ぎ": 3111,
      "く": 3112,
      "ぐ": 3113,
      "け": 3114,
      "げ": 3115,
      "こ": 3116,
      "ご": 3117,
      "さ": 3118,
      "ざ": 3119,
      "し": 3120,
      "じ": 3121,
      "す": 3122,
      "ず": 3123,
      "せ": 3124,
      "ぜ": 3125,
      "そ": 3126,
      "ぞ": 3127,
      "た": 3128,
      "だ": 3129,
      "ち": 3130,
      "ぢ": 3131,
      "っ": 3132,
      "つ": 3133,
      "づ": 3134,
      "て": 3135,
      "で": 3136,
      "と": 3137,
      "ど": 3138,
      "な": 3139,
      "に": 3140,
      "ぬ": 3141,
      "ね": 3142,
      "の": 3143,
      "は": 3144,
      "ば": 3145,
      "ぱ": 3146,
      "ひ": 3147,
      "び": 3148,
      "ぴ": 3149,
      "ふ": 3150,
      "ぶ": 3151,
      "ぷ": 3152,
      "へ": 3153,
      "べ": 3154,
      "ぺ": 3155,
      "ほ": 3156,
      "ぼ": 3157,
      "ぽ": 3158,
      "ま": 3159,
      "み": 3160,
      "む": 3161,
      "め": 3162,
      "も": 3163,
      "ゃ": 3164,
      "や": 3165,
      "ゅ": 3166,
      "ゆ": 3167,
      "ょ": 3168,
      "よ": 3169,
      "ら": 3170,
      "り": 3171,
      "る": 3172,
      "れ": 3173,
      "ろ": 3174,
      "ゎ": 3175,
      "わ": 3176,
      "ゐ": 3177,
      "ゑ": 3178,
      "を": 3179,
      "ん": 3180,
      "゚": 3181,
      "゛": 3182,
      "゜": 3183,
      "ゝ": 3184,
      "ゞ": 3185,
      "ァ": 3186,
      "ア": 3187,
      "ィ": 3188,
      "イ": 3189,
      "ゥ": 3190,
      "ウ": 3191,
      "ェ": 3192,
      "エ": 3193,
      "ォ": 3194,
      "オ": 3195,
      "カ": 3196,
      "ガ": 3197,
      "キ": 3198,
      "ギ": 3199,
      "ク": 3200,
      "グ": 3201,
      "ケ": 3202,
      "ゲ": 3203,
      "コ": 3204,
      "ゴ": 3205,
      "サ": 3206,
      "ザ": 3207,
      "シ": 3208,
      "ジ": 3209,
      "ス": 3210,
      "ズ": 3211,
      "セ": 3212,
      "ゼ": 3213,
      "ソ": 3214,
      "ゾ": 3215,
      "タ": 3216,
      "ダ": 3217,
      "チ": 3218,
      "ヂ": 3219,
      "ッ": 3220,
      "ツ": 3221,
      "テ": 3222,
      "デ": 3223,
      "ト": 3224,
      "ド": 3225,
      "ナ": 3226,
      "ニ": 3227,
      "ヌ": 3228,
      "ネ": 3229,
      "ノ": 3230,
      "ハ": 3231,
      "バ": 3232,
      "パ": 3233,
      "ヒ": 3234,
      "ビ": 3235,
      "ピ": 3236,
      "フ": 3237,
      "ブ": 3238,
      "プ": 3239,
      "ヘ": 3240,
      "ベ": 3241,
      "ペ": 3242,
      "ホ": 3243,
      "ボ": 3244,
      "ポ": 3245,
      "マ": 3246,
      "ミ": 3247,
      "ム": 3248,
      "メ": 3249,
      "モ": 3250,
      "ャ": 3251,
      "ヤ": 3252,
      "ュ": 3253,
      "ユ": 3254,
      "ョ": 3255,
      "ヨ": 3256,
      "ラ": 3257,
      "リ": 3258,
      "ル": 3259,
      "レ": 3260,
      "ロ": 3261,
      "ヮ": 3262,
      "ワ": 3263,
      "ヱ": 3264,
      "ヲ": 3265,
      "ン": 3266,
      "ヴ": 3267,
      "ヶ": 3268,
      "・": 3269,
      "ー": 3270,
      "ヽ": 3271,
      "ヾ": 3272,
      "ㄅ": 3273,
      "ㄆ": 3274,
      "ㄇ": 3275,
      "ㄈ": 3276,
      "ㄩ": 3277,
      "ㄱ": 3278,
      "ㄲ": 3279,
      "ㄴ": 3280,
      "ㄷ": 3281,
      "ㄹ": 3282,
      "ㅁ": 3283,
      "ㅂ": 3284,
      "ㅄ": 3285,
      "ㅅ": 3286,
      "ㅆ": 3287,
      "ㅇ": 3288,
      "ㅈ": 3289,
      "ㅊ": 3290,
      "ㅌ": 3291,
      "ㅎ": 3292,
      "ㅏ": 3293,
      "ㅓ": 3294,
      "ㅔ": 3295,
      "ㅕ": 3296,
      "ㅖ": 3297,
      "ㅜ": 3298,
      "ㅡ": 3299,
      "ㅢ": 3300,
      "ㅣ": 3301,
      "ㆍ": 3302,
      "ㇰ": 3303,
      "ㇲ": 3304,
      "ㇶ": 3305,
      "ㇷ": 3306,
      "ㇸ": 3307,
      "ㇹ": 3308,
      "ㇻ": 3309,
      "㈜": 3310,
      "㎞": 3311,
      "㎠": 3312,
      "㎡": 3313,
      "㎩": 3314,
      "㏒": 3315,
      "㪠": 3316,
      "㰀": 3317,
      "㸀": 3318,
      "一": 3319,
      "丁": 3320,
      "七": 3321,
      "万": 3322,
      "丈": 3323,
      "三": 3324,
      "上": 3325,
      "下": 3326,
      "不": 3327,
      "与": 3328,
      "丐": 3329,
      "丑": 3330,
      "专": 3331,
      "且": 3332,
      "丕": 3333,
      "世": 3334,
      "丘": 3335,
      "丙": 3336,
      "业": 3337,
      "丛": 3338,
      "东": 3339,
      "丝": 3340,
      "丟": 3341,
      "両": 3342,
      "丢": 3343,
      "两": 3344,
      "严": 3345,
      "並": 3346,
      "丧": 3347,
      "丨": 3348,
      "个": 3349,
      "中": 3350,
      "丰": 3351,
      "串": 3352,
      "临": 3353,
      "丶": 3354,
      "丸": 3355,
      "丹": 3356,
      "为": 3357,
      "主": 3358,
      "丼": 3359,
      "丽": 3360,
      "举": 3361,
      "乃": 3362,
      "久": 3363,
      "么": 3364,
      "义": 3365,
      "之": 3366,
      "乌": 3367,
      "乎": 3368,
      "乏": 3369,
      "乐": 3370,
      "乔": 3371,
      "乗": 3372,
      "乘": 3373,
      "乙": 3374,
      "乚": 3375,
      "乛": 3376,
      "九": 3377,
      "乞": 3378,
      "也": 3379,
      "习": 3380,
      "乡": 3381,
      "书": 3382,
      "买": 3383,
      "乱": 3384,
      "乳": 3385,
      "乾": 3386,
      "亀": 3387,
      "了": 3388,
      "予": 3389,
      "争": 3390,
      "事": 3391,
      "二": 3392,
      "于": 3393,
      "亏": 3394,
      "云": 3395,
      "互": 3396,
      "亓": 3397,
      "五": 3398,
      "井": 3399,
      "亚": 3400,
      "些": 3401,
      "亜": 3402,
      "亞": 3403,
      "亡": 3404,
      "亢": 3405,
      "交": 3406,
      "亥": 3407,
      "亦": 3408,
      "产": 3409,
      "亨": 3410,
      "亩": 3411,
      "享": 3412,
      "京": 3413,
      "亭": 3414,
      "亮": 3415,
      "亲": 3416,
      "亳": 3417,
      "人": 3418,
      "亻": 3419,
      "亿": 3420,
      "什": 3421,
      "仁": 3422,
      "仅": 3423,
      "仆": 3424,
      "仇": 3425,
      "今": 3426,
      "介": 3427,
      "仍": 3428,
      "从": 3429,
      "仏": 3430,
      "仑": 3431,
      "仔": 3432,
      "仕": 3433,
      "他": 3434,
      "付": 3435,
      "仙": 3436,
      "仚": 3437,
      "仡": 3438,
      "代": 3439,
      "令": 3440,
      "以": 3441,
      "仪": 3442,
      "们": 3443,
      "仮": 3444,
      "仰": 3445,
      "仲": 3446,
      "件": 3447,
      "价": 3448,
      "任": 3449,
      "份": 3450,
      "仿": 3451,
      "企": 3452,
      "伊": 3453,
      "伋": 3454,
      "伍": 3455,
      "伎": 3456,
      "伏": 3457,
      "伐": 3458,
      "休": 3459,
      "众": 3460,
      "优": 3461,
      "伙": 3462,
      "会": 3463,
      "伝": 3464,
      "伞": 3465,
      "伟": 3466,
      "传": 3467,
      "伤": 3468,
      "伦": 3469,
      "伯": 3470,
      "估": 3471,
      "伴": 3472,
      "伸": 3473,
      "似": 3474,
      "伽": 3475,
      "但": 3476,
      "佇": 3477,
      "位": 3478,
      "低": 3479,
      "住": 3480,
      "佐": 3481,
      "佑": 3482,
      "体": 3483,
      "何": 3484,
      "佗": 3485,
      "余": 3486,
      "佛": 3487,
      "作": 3488,
      "你": 3489,
      "佤": 3490,
      "佩": 3491,
      "佬": 3492,
      "佳": 3493,
      "併": 3494,
      "佾": 3495,
      "使": 3496,
      "來": 3497,
      "例": 3498,
      "侍": 3499,
      "侗": 3500,
      "供": 3501,
      "依": 3502,
      "侠": 3503,
      "価": 3504,
      "侣": 3505,
      "侦": 3506,
      "侧": 3507,
      "侨": 3508,
      "侯": 3509,
      "侵": 3510,
      "侶": 3511,
      "便": 3512,
      "係": 3513,
      "促": 3514,
      "俄": 3515,
      "俊": 3516,
      "俐": 3517,
      "俘": 3518,
      "保": 3519,
      "俠": 3520,
      "信": 3521,
      "俣": 3522,
      "俩": 3523,
      "俭": 3524,
      "修": 3525,
      "俱": 3526,
      "俳": 3527,
      "俺": 3528,
      "倉": 3529,
      "個": 3530,
      "倍": 3531,
      "們": 3532,
      "倒": 3533,
      "倖": 3534,
      "候": 3535,
      "借": 3536,
      "倡": 3537,
      "値": 3538,
      "倦": 3539,
      "倫": 3540,
      "倭": 3541,
      "倶": 3542,
      "倹": 3543,
      "债": 3544,
      "值": 3545,
      "倾": 3546,
      "假": 3547,
      "偉": 3548,
      "偏": 3549,
      "做": 3550,
      "停": 3551,
      "健": 3552,
      "側": 3553,
      "偵": 3554,
      "偶": 3555,
      "偷": 3556,
      "偽": 3557,
      "偿": 3558,
      "傅": 3559,
      "傍": 3560,
      "傑": 3561,
      "備": 3562,
      "傣": 3563,
      "催": 3564,
      "傲": 3565,
      "傳": 3566,
      "債": 3567,
      "傷": 3568,
      "僅": 3569,
      "僊": 3570,
      "働": 3571,
      "像": 3572,
      "僕": 3573,
      "僥": 3574,
      "僧": 3575,
      "僮": 3576,
      "僵": 3577,
      "價": 3578,
      "儀": 3579,
      "儂": 3580,
      "億": 3581,
      "儒": 3582,
      "儘": 3583,
      "償": 3584,
      "優": 3585,
      "儿": 3586,
      "允": 3587,
      "元": 3588,
      "兄": 3589,
      "充": 3590,
      "兆": 3591,
      "先": 3592,
      "光": 3593,
      "克": 3594,
      "免": 3595,
      "兎": 3596,
      "児": 3597,
      "兒": 3598,
      "兔": 3599,
      "党": 3600,
      "兜": 3601,
      "入": 3602,
      "內": 3603,
      "全": 3604,
      "兩": 3605,
      "八": 3606,
      "公": 3607,
      "六": 3608,
      "兰": 3609,
      "共": 3610,
      "关": 3611,
      "兴": 3612,
      "兵": 3613,
      "其": 3614,
      "具": 3615,
      "典": 3616,
      "兹": 3617,
      "养": 3618,
      "兼": 3619,
      "兽": 3620,
      "内": 3621,
      "円": 3622,
      "冉": 3623,
      "冊": 3624,
      "册": 3625,
      "再": 3626,
      "冒": 3627,
      "冗": 3628,
      "写": 3629,
      "军": 3630,
      "农": 3631,
      "冠": 3632,
      "冤": 3633,
      "冥": 3634,
      "冨": 3635,
      "冬": 3636,
      "冯": 3637,
      "冰": 3638,
      "冲": 3639,
      "决": 3640,
      "冴": 3641,
      "况": 3642,
      "冷": 3643,
      "冻": 3644,
      "净": 3645,
      "准": 3646,
      "凉": 3647,
      "凌": 3648,
      "凍": 3649,
      "减": 3650,
      "凑": 3651,
      "凛": 3652,
      "凝": 3653,
      "几": 3654,
      "凡": 3655,
      "凤": 3656,
      "処": 3657,
      "凯": 3658,
      "凰": 3659,
      "凱": 3660,
      "凳": 3661,
      "凶": 3662,
      "凸": 3663,
      "出": 3664,
      "击": 3665,
      "函": 3666,
      "刀": 3667,
      "刃": 3668,
      "分": 3669,
      "切": 3670,
      "刈": 3671,
      "刊": 3672,
      "刍": 3673,
      "刑": 3674,
      "划": 3675,
      "列": 3676,
      "刘": 3677,
      "则": 3678,
      "刚": 3679,
      "创": 3680,
      "初": 3681,
      "删": 3682,
      "判": 3683,
      "別": 3684,
      "利": 3685,
      "别": 3686,
      "刮": 3687,
      "到": 3688,
      "制": 3689,
      "刷": 3690,
      "券": 3691,
      "刹": 3692,
      "刺": 3693,
      "刻": 3694,
      "剂": 3695,
      "則": 3696,
      "削": 3697,
      "剌": 3698,
      "前": 3699,
      "剐": 3700,
      "剛": 3701,
      "剣": 3702,
      "剥": 3703,
      "剧": 3704,
      "剩": 3705,
      "剪": 3706,
      "副": 3707,
      "割": 3708,
      "創": 3709,
      "剽": 3710,
      "劃": 3711,
      "劇": 3712,
      "劉": 3713,
      "劍": 3714,
      "力": 3715,
      "劝": 3716,
      "办": 3717,
      "功": 3718,
      "加": 3719,
      "务": 3720,
      "劣": 3721,
      "动": 3722,
      "助": 3723,
      "努": 3724,
      "劫": 3725,
      "励": 3726,
      "劲": 3727,
      "劳": 3728,
      "労": 3729,
      "効": 3730,
      "势": 3731,
      "勃": 3732,
      "勇": 3733,
      "勉": 3734,
      "勒": 3735,
      "動": 3736,
      "勘": 3737,
      "務": 3738,
      "勝": 3739,
      "勞": 3740,
      "募": 3741,
      "勢": 3742,
      "勤": 3743,
      "勧": 3744,
      "勲": 3745,
      "勺": 3746,
      "勿": 3747,
      "匁": 3748,
      "匂": 3749,
      "包": 3750,
      "匆": 3751,
      "匈": 3752,
      "化": 3753,
      "北": 3754,
      "匙": 3755,
      "匠": 3756,
      "匮": 3757,
      "匹": 3758,
      "区": 3759,
      "医": 3760,
      "匿": 3761,
      "區": 3762,
      "十": 3763,
      "千": 3764,
      "卄": 3765,
      "卅": 3766,
      "升": 3767,
      "午": 3768,
      "半": 3769,
      "卍": 3770,
      "华": 3771,
      "协": 3772,
      "卐": 3773,
      "卒": 3774,
      "卓": 3775,
      "協": 3776,
      "单": 3777,
      "卖": 3778,
      "南": 3779,
      "単": 3780,
      "博": 3781,
      "卜": 3782,
      "占": 3783,
      "卡": 3784,
      "卢": 3785,
      "卧": 3786,
      "卫": 3787,
      "卯": 3788,
      "印": 3789,
      "危": 3790,
      "即": 3791,
      "却": 3792,
      "卵": 3793,
      "卷": 3794,
      "卻": 3795,
      "卿": 3796,
      "厂": 3797,
      "厄": 3798,
      "厅": 3799,
      "历": 3800,
      "压": 3801,
      "厌": 3802,
      "厕": 3803,
      "厘": 3804,
      "厚": 3805,
      "原": 3806,
      "厠": 3807,
      "厢": 3808,
      "厥": 3809,
      "厦": 3810,
      "厨": 3811,
      "厩": 3812,
      "厳": 3813,
      "去": 3814,
      "县": 3815,
      "参": 3816,
      "參": 3817,
      "叄": 3818,
      "又": 3819,
      "叉": 3820,
      "及": 3821,
      "友": 3822,
      "双": 3823,
      "反": 3824,
      "収": 3825,
      "发": 3826,
      "叔": 3827,
      "取": 3828,
      "受": 3829,
      "变": 3830,
      "叛": 3831,
      "叠": 3832,
      "叢": 3833,
      "口": 3834,
      "古": 3835,
      "句": 3836,
      "另": 3837,
      "叩": 3838,
      "只": 3839,
      "叫": 3840,
      "召": 3841,
      "叭": 3842,
      "可": 3843,
      "台": 3844,
      "叱": 3845,
      "史": 3846,
      "右": 3847,
      "叶": 3848,
      "号": 3849,
      "司": 3850,
      "叹": 3851,
      "吁": 3852,
      "吃": 3853,
      "各": 3854,
      "合": 3855,
      "吉": 3856,
      "同": 3857,
      "名": 3858,
      "后": 3859,
      "吐": 3860,
      "向": 3861,
      "吓": 3862,
      "吕": 3863,
      "吗": 3864,
      "君": 3865,
      "吞": 3866,
      "吟": 3867,
      "否": 3868,
      "吧": 3869,
      "吩": 3870,
      "含": 3871,
      "听": 3872,
      "启": 3873,
      "吳": 3874,
      "吴": 3875,
      "吵": 3876,
      "吶": 3877,
      "吸": 3878,
      "吹": 3879,
      "吻": 3880,
      "吾": 3881,
      "呂": 3882,
      "呃": 3883,
      "呆": 3884,
      "呈": 3885,
      "呉": 3886,
      "告": 3887,
      "呎": 3888,
      "呐": 3889,
      "呑": 3890,
      "员": 3891,
      "呢": 3892,
      "呦": 3893,
      "周": 3894,
      "味": 3895,
      "呵": 3896,
      "呼": 3897,
      "命": 3898,
      "和": 3899,
      "咐": 3900,
      "咒": 3901,
      "咕": 3902,
      "咖": 3903,
      "咤": 3904,
      "咨": 3905,
      "咱": 3906,
      "咲": 3907,
      "咸": 3908,
      "咽": 3909,
      "哀": 3910,
      "品": 3911,
      "哇": 3912,
      "哈": 3913,
      "哉": 3914,
      "响": 3915,
      "哎": 3916,
      "哑": 3917,
      "哒": 3918,
      "哗": 3919,
      "員": 3920,
      "哥": 3921,
      "哦": 3922,
      "哪": 3923,
      "哭": 3924,
      "哲": 3925,
      "哺": 3926,
      "唄": 3927,
      "唆": 3928,
      "唇": 3929,
      "唉": 3930,
      "唐": 3931,
      "唔": 3932,
      "唢": 3933,
      "唤": 3934,
      "售": 3935,
      "唯": 3936,
      "唱": 3937,
      "啃": 3938,
      "商": 3939,
      "啊": 3940,
      "問": 3941,
      "啓": 3942,
      "啖": 3943,
      "啟": 3944,
      "啡": 3945,
      "啤": 3946,
      "啦": 3947,
      "啵": 3948,
      "啸": 3949,
      "啼": 3950,
      "喃": 3951,
      "善": 3952,
      "喇": 3953,
      "喉": 3954,
      "喊": 3955,
      "喏": 3956,
      "喘": 3957,
      "喚": 3958,
      "喜": 3959,
      "喝": 3960,
      "喧": 3961,
      "喪": 3962,
      "喬": 3963,
      "單": 3964,
      "喳": 3965,
      "喵": 3966,
      "営": 3967,
      "喻": 3968,
      "嗅": 3969,
      "嗎": 3970,
      "嗓": 3971,
      "嗚": 3972,
      "嗣": 3973,
      "嗩": 3974,
      "嗶": 3975,
      "嘅": 3976,
      "嘆": 3977,
      "嘉": 3978,
      "嘎": 3979,
      "嘗": 3980,
      "嘘": 3981,
      "嘴": 3982,
      "噌": 3983,
      "噜": 3984,
      "噠": 3985,
      "器": 3986,
      "噪": 3987,
      "噴": 3988,
      "噻": 3989,
      "嚇": 3990,
      "嚈": 3991,
      "嚗": 3992,
      "嚴": 3993,
      "囘": 3994,
      "四": 3995,
      "回": 3996,
      "因": 3997,
      "团": 3998,
      "団": 3999,
      "园": 4000,
      "困": 4001,
      "囲": 4002,
      "図": 4003,
      "围": 4004,
      "固": 4005,
      "国": 4006,
      "图": 4007,
      "圀": 4008,
      "圆": 4009,
      "圈": 4010,
      "國": 4011,
      "圍": 4012,
      "圏": 4013,
      "園": 4014,
      "圓": 4015,
      "圖": 4016,
      "團": 4017,
      "土": 4018,
      "圣": 4019,
      "圧": 4020,
      "在": 4021,
      "圪": 4022,
      "圭": 4023,
      "地": 4024,
      "圳": 4025,
      "场": 4026,
      "圾": 4027,
      "址": 4028,
      "坂": 4029,
      "均": 4030,
      "坊": 4031,
      "坎": 4032,
      "坏": 4033,
      "坐": 4034,
      "坑": 4035,
      "块": 4036,
      "坚": 4037,
      "坛": 4038,
      "坝": 4039,
      "坠": 4040,
      "坡": 4041,
      "坤": 4042,
      "坦": 4043,
      "坪": 4044,
      "坻": 4045,
      "垂": 4046,
      "垃": 4047,
      "垄": 4048,
      "型": 4049,
      "垢": 4050,
      "垣": 4051,
      "垩": 4052,
      "埂": 4053,
      "埃": 4054,
      "城": 4055,
      "埔": 4056,
      "域": 4057,
      "埠": 4058,
      "執": 4059,
      "培": 4060,
      "基": 4061,
      "埼": 4062,
      "堀": 4063,
      "堂": 4064,
      "堅": 4065,
      "堆": 4066,
      "堉": 4067,
      "堕": 4068,
      "堡": 4069,
      "堤": 4070,
      "堯": 4071,
      "報": 4072,
      "場": 4073,
      "堵": 4074,
      "堺": 4075,
      "塀": 4076,
      "塌": 4077,
      "塑": 4078,
      "塔": 4079,
      "塘": 4080,
      "塚": 4081,
      "塞": 4082,
      "塩": 4083,
      "填": 4084,
      "塵": 4085,
      "塾": 4086,
      "境": 4087,
      "墓": 4088,
      "増": 4089,
      "墙": 4090,
      "增": 4091,
      "墨": 4092,
      "墳": 4093,
      "壁": 4094,
      "壇": 4095,
      "壊": 4096,
      "壓": 4097,
      "壕": 4098,
      "壞": 4099,
      "壢": 4100,
      "壤": 4101,
      "士": 4102,
      "壬": 4103,
      "壮": 4104,
      "壯": 4105,
      "声": 4106,
      "売": 4107,
      "壳": 4108,
      "壶": 4109,
      "壹": 4110,
      "壺": 4111,
      "壽": 4112,
      "处": 4113,
      "备": 4114,
      "変": 4115,
      "复": 4116,
      "夏": 4117,
      "夕": 4118,
      "外": 4119,
      "多": 4120,
      "夜": 4121,
      "够": 4122,
      "夠": 4123,
      "夢": 4124,
      "大": 4125,
      "天": 4126,
      "太": 4127,
      "夫": 4128,
      "央": 4129,
      "夯": 4130,
      "失": 4131,
      "头": 4132,
      "夷": 4133,
      "夸": 4134,
      "夹": 4135,
      "夺": 4136,
      "奇": 4137,
      "奈": 4138,
      "奉": 4139,
      "奋": 4140,
      "奎": 4141,
      "奏": 4142,
      "契": 4143,
      "奔": 4144,
      "奖": 4145,
      "套": 4146,
      "奘": 4147,
      "奚": 4148,
      "奥": 4149,
      "奧": 4150,
      "奨": 4151,
      "奮": 4152,
      "女": 4153,
      "奴": 4154,
      "奶": 4155,
      "奸": 4156,
      "她": 4157,
      "好": 4158,
      "如": 4159,
      "妃": 4160,
      "妇": 4161,
      "妈": 4162,
      "妒": 4163,
      "妓": 4164,
      "妖": 4165,
      "妙": 4166,
      "妥": 4167,
      "妨": 4168,
      "妪": 4169,
      "妳": 4170,
      "妹": 4171,
      "妻": 4172,
      "姆": 4173,
      "姉": 4174,
      "姊": 4175,
      "始": 4176,
      "姐": 4177,
      "姑": 4178,
      "姓": 4179,
      "委": 4180,
      "姜": 4181,
      "姥": 4182,
      "姨": 4183,
      "姫": 4184,
      "姬": 4185,
      "姻": 4186,
      "姿": 4187,
      "威": 4188,
      "娃": 4189,
      "娅": 4190,
      "娇": 4191,
      "娑": 4192,
      "娘": 4193,
      "娛": 4194,
      "娜": 4195,
      "娥": 4196,
      "娱": 4197,
      "婆": 4198,
      "婚": 4199,
      "婦": 4200,
      "婴": 4201,
      "婶": 4202,
      "婿": 4203,
      "媚": 4204,
      "媛": 4205,
      "媳": 4206,
      "媽": 4207,
      "嫁": 4208,
      "嫌": 4209,
      "嫡": 4210,
      "嫦": 4211,
      "嫩": 4212,
      "嬌": 4213,
      "嬰": 4214,
      "嬴": 4215,
      "子": 4216,
      "孔": 4217,
      "字": 4218,
      "存": 4219,
      "孙": 4220,
      "孚": 4221,
      "孜": 4222,
      "孝": 4223,
      "孟": 4224,
      "季": 4225,
      "孤": 4226,
      "学": 4227,
      "孩": 4228,
      "孫": 4229,
      "學": 4230,
      "宁": 4231,
      "它": 4232,
      "宅": 4233,
      "宇": 4234,
      "守": 4235,
      "安": 4236,
      "宋": 4237,
      "完": 4238,
      "宏": 4239,
      "宕": 4240,
      "宗": 4241,
      "官": 4242,
      "宙": 4243,
      "定": 4244,
      "宛": 4245,
      "宜": 4246,
      "宝": 4247,
      "实": 4248,
      "実": 4249,
      "审": 4250,
      "客": 4251,
      "宣": 4252,
      "室": 4253,
      "宪": 4254,
      "宫": 4255,
      "宮": 4256,
      "害": 4257,
      "宴": 4258,
      "宵": 4259,
      "家": 4260,
      "容": 4261,
      "宽": 4262,
      "宾": 4263,
      "宿": 4264,
      "寄": 4265,
      "寅": 4266,
      "密": 4267,
      "寇": 4268,
      "富": 4269,
      "寒": 4270,
      "寓": 4271,
      "寛": 4272,
      "寝": 4273,
      "察": 4274,
      "寡": 4275,
      "寥": 4276,
      "實": 4277,
      "寧": 4278,
      "寨": 4279,
      "審": 4280,
      "寫": 4281,
      "寬": 4282,
      "寶": 4283,
      "寸": 4284,
      "对": 4285,
      "寺": 4286,
      "寻": 4287,
      "导": 4288,
      "対": 4289,
      "寿": 4290,
      "封": 4291,
      "専": 4292,
      "射": 4293,
      "将": 4294,
      "將": 4295,
      "專": 4296,
      "尉": 4297,
      "尊": 4298,
      "尋": 4299,
      "對": 4300,
      "導": 4301,
      "小": 4302,
      "少": 4303,
      "尔": 4304,
      "尕": 4305,
      "尖": 4306,
      "尘": 4307,
      "尚": 4308,
      "尤": 4309,
      "尧": 4310,
      "就": 4311,
      "尸": 4312,
      "尹": 4313,
      "尺": 4314,
      "尻": 4315,
      "尼": 4316,
      "尽": 4317,
      "尾": 4318,
      "尿": 4319,
      "局": 4320,
      "层": 4321,
      "居": 4322,
      "屆": 4323,
      "屈": 4324,
      "届": 4325,
      "屋": 4326,
      "屍": 4327,
      "屏": 4328,
      "屑": 4329,
      "展": 4330,
      "属": 4331,
      "屠": 4332,
      "層": 4333,
      "屬": 4334,
      "屯": 4335,
      "山": 4336,
      "岁": 4337,
      "岂": 4338,
      "岐": 4339,
      "岗": 4340,
      "岛": 4341,
      "岡": 4342,
      "岩": 4343,
      "岬": 4344,
      "岭": 4345,
      "岳": 4346,
      "岸": 4347,
      "峠": 4348,
      "峡": 4349,
      "峨": 4350,
      "峰": 4351,
      "島": 4352,
      "峽": 4353,
      "崂": 4354,
      "崇": 4355,
      "崎": 4356,
      "崔": 4357,
      "崖": 4358,
      "崗": 4359,
      "崩": 4360,
      "崳": 4361,
      "嵐": 4362,
      "嵯": 4363,
      "嶋": 4364,
      "嶺": 4365,
      "嶼": 4366,
      "巒": 4367,
      "川": 4368,
      "州": 4369,
      "巡": 4370,
      "巢": 4371,
      "巣": 4372,
      "工": 4373,
      "左": 4374,
      "巧": 4375,
      "巨": 4376,
      "巩": 4377,
      "巫": 4378,
      "差": 4379,
      "己": 4380,
      "已": 4381,
      "巳": 4382,
      "巴": 4383,
      "巷": 4384,
      "巻": 4385,
      "巾": 4386,
      "币": 4387,
      "市": 4388,
      "布": 4389,
      "帅": 4390,
      "师": 4391,
      "希": 4392,
      "帐": 4393,
      "帖": 4394,
      "帘": 4395,
      "帜": 4396,
      "帝": 4397,
      "帥": 4398,
      "带": 4399,
      "師": 4400,
      "席": 4401,
      "帮": 4402,
      "帯": 4403,
      "帰": 4404,
      "帳": 4405,
      "帶": 4406,
      "帷": 4407,
      "常": 4408,
      "帽": 4409,
      "幀": 4410,
      "幅": 4411,
      "幌": 4412,
      "幕": 4413,
      "幟": 4414,
      "幡": 4415,
      "幢": 4416,
      "幣": 4417,
      "幫": 4418,
      "干": 4419,
      "平": 4420,
      "年": 4421,
      "并": 4422,
      "幸": 4423,
      "幹": 4424,
      "幺": 4425,
      "幻": 4426,
      "幼": 4427,
      "幽": 4428,
      "幾": 4429,
      "广": 4430,
      "庁": 4431,
      "広": 4432,
      "庄": 4433,
      "庆": 4434,
      "床": 4435,
      "序": 4436,
      "庐": 4437,
      "库": 4438,
      "应": 4439,
      "底": 4440,
      "店": 4441,
      "庙": 4442,
      "庚": 4443,
      "府": 4444,
      "庞": 4445,
      "废": 4446,
      "度": 4447,
      "座": 4448,
      "庫": 4449,
      "庭": 4450,
      "庵": 4451,
      "庶": 4452,
      "康": 4453,
      "庸": 4454,
      "廉": 4455,
      "廊": 4456,
      "廓": 4457,
      "廚": 4458,
      "廟": 4459,
      "廠": 4460,
      "廢": 4461,
      "廣": 4462,
      "廬": 4463,
      "廳": 4464,
      "延": 4465,
      "廷": 4466,
      "建": 4467,
      "廿": 4468,
      "开": 4469,
      "弁": 4470,
      "异": 4471,
      "弃": 4472,
      "弄": 4473,
      "弉": 4474,
      "弌": 4475,
      "弍": 4476,
      "式": 4477,
      "弐": 4478,
      "弓": 4479,
      "引": 4480,
      "弗": 4481,
      "弘": 4482,
      "弟": 4483,
      "张": 4484,
      "弥": 4485,
      "弦": 4486,
      "弯": 4487,
      "弱": 4488,
      "張": 4489,
      "強": 4490,
      "弹": 4491,
      "强": 4492,
      "弼": 4493,
      "弾": 4494,
      "彀": 4495,
      "彈": 4496,
      "彌": 4497,
      "归": 4498,
      "当": 4499,
      "录": 4500,
      "彙": 4501,
      "形": 4502,
      "彥": 4503,
      "彦": 4504,
      "彩": 4505,
      "彪": 4506,
      "彰": 4507,
      "影": 4508,
      "彷": 4509,
      "役": 4510,
      "彻": 4511,
      "彼": 4512,
      "往": 4513,
      "征": 4514,
      "徂": 4515,
      "径": 4516,
      "待": 4517,
      "徇": 4518,
      "很": 4519,
      "律": 4520,
      "後": 4521,
      "徐": 4522,
      "徑": 4523,
      "徒": 4524,
      "従": 4525,
      "得": 4526,
      "從": 4527,
      "徠": 4528,
      "御": 4529,
      "徨": 4530,
      "復": 4531,
      "微": 4532,
      "徳": 4533,
      "徵": 4534,
      "德": 4535,
      "徹": 4536,
      "徽": 4537,
      "心": 4538,
      "必": 4539,
      "忆": 4540,
      "忌": 4541,
      "忍": 4542,
      "忏": 4543,
      "忒": 4544,
      "志": 4545,
      "忘": 4546,
      "忙": 4547,
      "応": 4548,
      "忠": 4549,
      "忧": 4550,
      "快": 4551,
      "念": 4552,
      "忽": 4553,
      "怀": 4554,
      "态": 4555,
      "怎": 4556,
      "怒": 4557,
      "怕": 4558,
      "怜": 4559,
      "思": 4560,
      "怡": 4561,
      "急": 4562,
      "性": 4563,
      "怨": 4564,
      "怪": 4565,
      "总": 4566,
      "恋": 4567,
      "恐": 4568,
      "恒": 4569,
      "恕": 4570,
      "恢": 4571,
      "恥": 4572,
      "恨": 4573,
      "恩": 4574,
      "恭": 4575,
      "息": 4576,
      "恳": 4577,
      "恵": 4578,
      "恶": 4579,
      "悅": 4580,
      "悉": 4581,
      "悔": 4582,
      "悠": 4583,
      "患": 4584,
      "悦": 4585,
      "您": 4586,
      "悪": 4587,
      "悬": 4588,
      "悲": 4589,
      "悼": 4590,
      "情": 4591,
      "惊": 4592,
      "惋": 4593,
      "惑": 4594,
      "惜": 4595,
      "惟": 4596,
      "惠": 4597,
      "惡": 4598,
      "惣": 4599,
      "惦": 4600,
      "惨": 4601,
      "惯": 4602,
      "惰": 4603,
      "想": 4604,
      "愁": 4605,
      "愈": 4606,
      "愉": 4607,
      "意": 4608,
      "愕": 4609,
      "愚": 4610,
      "愛": 4611,
      "感": 4612,
      "愧": 4613,
      "愿": 4614,
      "慈": 4615,
      "態": 4616,
      "慌": 4617,
      "慎": 4618,
      "慐": 4619,
      "慕": 4620,
      "慢": 4621,
      "慣": 4622,
      "慧": 4623,
      "慨": 4624,
      "慮": 4625,
      "慰": 4626,
      "慶": 4627,
      "憂": 4628,
      "憎": 4629,
      "憐": 4630,
      "憚": 4631,
      "憟": 4632,
      "憤": 4633,
      "憧": 4634,
      "憲": 4635,
      "憶": 4636,
      "憾": 4637,
      "懂": 4638,
      "懈": 4639,
      "應": 4640,
      "懋": 4641,
      "懐": 4642,
      "懒": 4643,
      "懶": 4644,
      "懷": 4645,
      "懸": 4646,
      "懿": 4647,
      "戀": 4648,
      "戈": 4649,
      "戊": 4650,
      "戌": 4651,
      "戎": 4652,
      "戏": 4653,
      "成": 4654,
      "我": 4655,
      "戒": 4656,
      "戔": 4657,
      "或": 4658,
      "战": 4659,
      "戚": 4660,
      "戦": 4661,
      "截": 4662,
      "戯": 4663,
      "戰": 4664,
      "戱": 4665,
      "戲": 4666,
      "戴": 4667,
      "戶": 4668,
      "户": 4669,
      "戸": 4670,
      "戻": 4671,
      "房": 4672,
      "所": 4673,
      "扁": 4674,
      "扇": 4675,
      "扉": 4676,
      "手": 4677,
      "才": 4678,
      "扎": 4679,
      "扒": 4680,
      "打": 4681,
      "扔": 4682,
      "払": 4683,
      "托": 4684,
      "扛": 4685,
      "执": 4686,
      "扩": 4687,
      "扪": 4688,
      "扫": 4689,
      "扬": 4690,
      "扮": 4691,
      "扯": 4692,
      "扱": 4693,
      "扳": 4694,
      "扶": 4695,
      "批": 4696,
      "扼": 4697,
      "找": 4698,
      "承": 4699,
      "技": 4700,
      "抄": 4701,
      "把": 4702,
      "抋": 4703,
      "抑": 4704,
      "抓": 4705,
      "投": 4706,
      "抗": 4707,
      "折": 4708,
      "抚": 4709,
      "抜": 4710,
      "択": 4711,
      "抢": 4712,
      "护": 4713,
      "报": 4714,
      "披": 4715,
      "抬": 4716,
      "抱": 4717,
      "抵": 4718,
      "抹": 4719,
      "押": 4720,
      "抽": 4721,
      "拂": 4722,
      "担": 4723,
      "拉": 4724,
      "拍": 4725,
      "拒": 4726,
      "拓": 4727,
      "拔": 4728,
      "拖": 4729,
      "拙": 4730,
      "招": 4731,
      "拜": 4732,
      "拝": 4733,
      "拟": 4734,
      "拠": 4735,
      "拣": 4736,
      "拥": 4737,
      "拦": 4738,
      "择": 4739,
      "括": 4740,
      "拭": 4741,
      "拯": 4742,
      "拱": 4743,
      "拳": 4744,
      "拼": 4745,
      "拽": 4746,
      "拾": 4747,
      "拿": 4748,
      "持": 4749,
      "挂": 4750,
      "指": 4751,
      "按": 4752,
      "挎": 4753,
      "挑": 4754,
      "挖": 4755,
      "挚": 4756,
      "挡": 4757,
      "挣": 4758,
      "挥": 4759,
      "挨": 4760,
      "振": 4761,
      "挺": 4762,
      "挿": 4763,
      "捆": 4764,
      "捎": 4765,
      "捐": 4766,
      "捜": 4767,
      "损": 4768,
      "换": 4769,
      "捣": 4770,
      "捨": 4771,
      "据": 4772,
      "捶": 4773,
      "捷": 4774,
      "掃": 4775,
      "授": 4776,
      "掉": 4777,
      "掌": 4778,
      "排": 4779,
      "掘": 4780,
      "掛": 4781,
      "探": 4782,
      "接": 4783,
      "控": 4784,
      "推": 4785,
      "措": 4786,
      "掲": 4787,
      "揌": 4788,
      "描": 4789,
      "提": 4790,
      "插": 4791,
      "揔": 4792,
      "揖": 4793,
      "揗": 4794,
      "揘": 4795,
      "揚": 4796,
      "換": 4797,
      "握": 4798,
      "揤": 4799,
      "揪": 4800,
      "援": 4801,
      "揺": 4802,
      "揽": 4803,
      "搁": 4804,
      "搂": 4805,
      "搇": 4806,
      "損": 4807,
      "搖": 4808,
      "搜": 4809,
      "搞": 4810,
      "搭": 4811,
      "搶": 4812,
      "携": 4813,
      "摂": 4814,
      "摄": 4815,
      "摆": 4816,
      "摇": 4817,
      "摊": 4818,
      "摘": 4819,
      "摧": 4820,
      "摩": 4821,
      "摸": 4822,
      "撃": 4823,
      "撇": 4824,
      "撒": 4825,
      "撕": 4826,
      "撤": 4827,
      "撥": 4828,
      "播": 4829,
      "撰": 4830,
      "撲": 4831,
      "擁": 4832,
      "擂": 4833,
      "擅": 4834,
      "擇": 4835,
      "擊": 4836,
      "操": 4837,
      "擎": 4838,
      "擔": 4839,
      "據": 4840,
      "擢": 4841,
      "擬": 4842,
      "攘": 4843,
      "支": 4844,
      "收": 4845,
      "攸": 4846,
      "改": 4847,
      "攻": 4848,
      "放": 4849,
      "政": 4850,
      "故": 4851,
      "效": 4852,
      "敌": 4853,
      "敎": 4854,
      "敏": 4855,
      "救": 4856,
      "敗": 4857,
      "教": 4858,
      "敞": 4859,
      "敢": 4860,
      "散": 4861,
      "敦": 4862,
      "敬": 4863,
      "数": 4864,
      "敲": 4865,
      "整": 4866,
      "敵": 4867,
      "敷": 4868,
      "數": 4869,
      "文": 4870,
      "斉": 4871,
      "斋": 4872,
      "斎": 4873,
      "斐": 4874,
      "斑": 4875,
      "斗": 4876,
      "料": 4877,
      "斜": 4878,
      "斟": 4879,
      "斡": 4880,
      "斤": 4881,
      "斥": 4882,
      "斧": 4883,
      "斬": 4884,
      "断": 4885,
      "斯": 4886,
      "新": 4887,
      "斷": 4888,
      "方": 4889,
      "於": 4890,
      "施": 4891,
      "旁": 4892,
      "旅": 4893,
      "旋": 4894,
      "族": 4895,
      "旗": 4896,
      "无": 4897,
      "既": 4898,
      "日": 4899,
      "旦": 4900,
      "旧": 4901,
      "旨": 4902,
      "早": 4903,
      "旬": 4904,
      "旭": 4905,
      "旱": 4906,
      "时": 4907,
      "昂": 4908,
      "昆": 4909,
      "昊": 4910,
      "昌": 4911,
      "明": 4912,
      "昏": 4913,
      "易": 4914,
      "昔": 4915,
      "星": 4916,
      "映": 4917,
      "春": 4918,
      "昧": 4919,
      "昨": 4920,
      "昭": 4921,
      "是": 4922,
      "昼": 4923,
      "显": 4924,
      "時": 4925,
      "晃": 4926,
      "晉": 4927,
      "晋": 4928,
      "晓": 4929,
      "晕": 4930,
      "晚": 4931,
      "晝": 4932,
      "晦": 4933,
      "晨": 4934,
      "晩": 4935,
      "普": 4936,
      "景": 4937,
      "晴": 4938,
      "晶": 4939,
      "智": 4940,
      "暂": 4941,
      "暑": 4942,
      "暖": 4943,
      "暗": 4944,
      "暦": 4945,
      "暮": 4946,
      "暴": 4947,
      "曆": 4948,
      "曇": 4949,
      "曉": 4950,
      "曌": 4951,
      "曙": 4952,
      "曜": 4953,
      "曝": 4954,
      "曰": 4955,
      "曲": 4956,
      "曳": 4957,
      "更": 4958,
      "書": 4959,
      "曹": 4960,
      "曼": 4961,
      "曽": 4962,
      "曾": 4963,
      "替": 4964,
      "最": 4965,
      "會": 4966,
      "月": 4967,
      "有": 4968,
      "朋": 4969,
      "服": 4970,
      "朔": 4971,
      "朗": 4972,
      "望": 4973,
      "朝": 4974,
      "期": 4975,
      "木": 4976,
      "未": 4977,
      "末": 4978,
      "本": 4979,
      "札": 4980,
      "术": 4981,
      "朱": 4982,
      "朳": 4983,
      "朴": 4984,
      "朵": 4985,
      "机": 4986,
      "朽": 4987,
      "杀": 4988,
      "杂": 4989,
      "权": 4990,
      "杉": 4991,
      "李": 4992,
      "杏": 4993,
      "材": 4994,
      "村": 4995,
      "杓": 4996,
      "杖": 4997,
      "杜": 4998,
      "杞": 4999,
      "束": 5000,
      "条": 5001,
      "来": 5002,
      "杨": 5003,
      "杭": 5004,
      "杯": 5005,
      "杰": 5006,
      "東": 5007,
      "杷": 5008,
      "松": 5009,
      "板": 5010,
      "极": 5011,
      "构": 5012,
      "枇": 5013,
      "枋": 5014,
      "析": 5015,
      "林": 5016,
      "枚": 5017,
      "果": 5018,
      "枝": 5019,
      "枠": 5020,
      "枣": 5021,
      "枪": 5022,
      "枫": 5023,
      "枭": 5024,
      "枯": 5025,
      "枳": 5026,
      "架": 5027,
      "枸": 5028,
      "柄": 5029,
      "柏": 5030,
      "某": 5031,
      "柑": 5032,
      "染": 5033,
      "柔": 5034,
      "柚": 5035,
      "柞": 5036,
      "查": 5037,
      "柯": 5038,
      "柱": 5039,
      "柳": 5040,
      "柴": 5041,
      "査": 5042,
      "柿": 5043,
      "栂": 5044,
      "栃": 5045,
      "栄": 5046,
      "标": 5047,
      "栎": 5048,
      "树": 5049,
      "栓": 5050,
      "栖": 5051,
      "栗": 5052,
      "校": 5053,
      "株": 5054,
      "栫": 5055,
      "样": 5056,
      "核": 5057,
      "根": 5058,
      "格": 5059,
      "栽": 5060,
      "桀": 5061,
      "桂": 5062,
      "桃": 5063,
      "框": 5064,
      "案": 5065,
      "桌": 5066,
      "桐": 5067,
      "桑": 5068,
      "桓": 5069,
      "桜": 5070,
      "桢": 5071,
      "桥": 5072,
      "桶": 5073,
      "梁": 5074,
      "梅": 5075,
      "梓": 5076,
      "條": 5077,
      "梦": 5078,
      "梨": 5079,
      "械": 5080,
      "梳": 5081,
      "检": 5082,
      "棉": 5083,
      "棋": 5084,
      "棍": 5085,
      "棒": 5086,
      "棓": 5087,
      "棕": 5088,
      "棗": 5089,
      "棟": 5090,
      "棠": 5091,
      "棣": 5092,
      "森": 5093,
      "棵": 5094,
      "棹": 5095,
      "棺": 5096,
      "椅": 5097,
      "椋": 5098,
      "植": 5099,
      "椎": 5100,
      "椒": 5101,
      "検": 5102,
      "椿": 5103,
      "楂": 5104,
      "楊": 5105,
      "楓": 5106,
      "楚": 5107,
      "楞": 5108,
      "楠": 5109,
      "楢": 5110,
      "業": 5111,
      "極": 5112,
      "楼": 5113,
      "楽": 5114,
      "概": 5115,
      "榄": 5116,
      "榊": 5117,
      "榎": 5118,
      "榔": 5119,
      "榛": 5120,
      "榜": 5121,
      "榨": 5122,
      "榮": 5123,
      "榴": 5124,
      "構": 5125,
      "槍": 5126,
      "槐": 5127,
      "様": 5128,
      "槟": 5129,
      "槻": 5130,
      "槽": 5131,
      "樂": 5132,
      "樊": 5133,
      "樓": 5134,
      "標": 5135,
      "模": 5136,
      "樣": 5137,
      "権": 5138,
      "横": 5139,
      "樫": 5140,
      "樹": 5141,
      "樺": 5142,
      "樽": 5143,
      "橄": 5144,
      "橋": 5145,
      "橘": 5146,
      "橙": 5147,
      "機": 5148,
      "橿": 5149,
      "檐": 5150,
      "檜": 5151,
      "檳": 5152,
      "檻": 5153,
      "櫂": 5154,
      "櫓": 5155,
      "櫻": 5156,
      "權": 5157,
      "欠": 5158,
      "次": 5159,
      "欢": 5160,
      "欣": 5161,
      "欧": 5162,
      "欲": 5163,
      "欺": 5164,
      "欽": 5165,
      "款": 5166,
      "歌": 5167,
      "歐": 5168,
      "歓": 5169,
      "歡": 5170,
      "止": 5171,
      "正": 5172,
      "此": 5173,
      "步": 5174,
      "武": 5175,
      "歩": 5176,
      "歯": 5177,
      "歲": 5178,
      "歳": 5179,
      "歴": 5180,
      "歷": 5181,
      "歸": 5182,
      "歹": 5183,
      "死": 5184,
      "殆": 5185,
      "殊": 5186,
      "残": 5187,
      "殘": 5188,
      "殭": 5189,
      "段": 5190,
      "殷": 5191,
      "殺": 5192,
      "殻": 5193,
      "殿": 5194,
      "毁": 5195,
      "母": 5196,
      "毎": 5197,
      "每": 5198,
      "毒": 5199,
      "比": 5200,
      "毕": 5201,
      "毘": 5202,
      "毛": 5203,
      "毫": 5204,
      "氏": 5205,
      "民": 5206,
      "氓": 5207,
      "气": 5208,
      "気": 5209,
      "氛": 5210,
      "氢": 5211,
      "氣": 5212,
      "氧": 5213,
      "水": 5214,
      "氷": 5215,
      "永": 5216,
      "汀": 5217,
      "汁": 5218,
      "求": 5219,
      "汇": 5220,
      "汉": 5221,
      "汐": 5222,
      "汗": 5223,
      "汝": 5224,
      "江": 5225,
      "池": 5226,
      "污": 5227,
      "汤": 5228,
      "汪": 5229,
      "汰": 5230,
      "汶": 5231,
      "汹": 5232,
      "決": 5233,
      "汽": 5234,
      "沃": 5235,
      "沈": 5236,
      "沉": 5237,
      "沌": 5238,
      "沒": 5239,
      "沔": 5240,
      "沖": 5241,
      "沘": 5242,
      "沙": 5243,
      "沟": 5244,
      "没": 5245,
      "沢": 5246,
      "沣": 5247,
      "沧": 5248,
      "河": 5249,
      "沸": 5250,
      "油": 5251,
      "治": 5252,
      "沼": 5253,
      "沽": 5254,
      "沿": 5255,
      "況": 5256,
      "泉": 5257,
      "泊": 5258,
      "法": 5259,
      "泗": 5260,
      "泛": 5261,
      "泞": 5262,
      "泡": 5263,
      "波": 5264,
      "泣": 5265,
      "泥": 5266,
      "注": 5267,
      "泪": 5268,
      "泰": 5269,
      "泳": 5270,
      "泽": 5271,
      "洁": 5272,
      "洋": 5273,
      "洗": 5274,
      "洙": 5275,
      "洛": 5276,
      "洞": 5277,
      "津": 5278,
      "洩": 5279,
      "洪": 5280,
      "洱": 5281,
      "洲": 5282,
      "洵": 5283,
      "活": 5284,
      "洼": 5285,
      "派": 5286,
      "流": 5287,
      "浄": 5288,
      "浅": 5289,
      "浆": 5290,
      "浇": 5291,
      "浊": 5292,
      "测": 5293,
      "济": 5294,
      "浏": 5295,
      "浑": 5296,
      "浒": 5297,
      "浓": 5298,
      "浔": 5299,
      "浙": 5300,
      "浜": 5301,
      "浣": 5302,
      "浦": 5303,
      "浩": 5304,
      "浪": 5305,
      "浮": 5306,
      "浴": 5307,
      "海": 5308,
      "浸": 5309,
      "消": 5310,
      "涉": 5311,
      "涌": 5312,
      "涕": 5313,
      "涙": 5314,
      "涛": 5315,
      "涧": 5316,
      "涨": 5317,
      "涯": 5318,
      "液": 5319,
      "涼": 5320,
      "涿": 5321,
      "淀": 5322,
      "淇": 5323,
      "淋": 5324,
      "淑": 5325,
      "淖": 5326,
      "淚": 5327,
      "淞": 5328,
      "淡": 5329,
      "淨": 5330,
      "淫": 5331,
      "淮": 5332,
      "深": 5333,
      "淳": 5334,
      "淵": 5335,
      "混": 5336,
      "淸": 5337,
      "添": 5338,
      "清": 5339,
      "済": 5340,
      "渊": 5341,
      "渋": 5342,
      "渐": 5343,
      "渓": 5344,
      "渗": 5345,
      "渚": 5346,
      "減": 5347,
      "渝": 5348,
      "渠": 5349,
      "渡": 5350,
      "渤": 5351,
      "温": 5352,
      "測": 5353,
      "港": 5354,
      "渴": 5355,
      "游": 5356,
      "湄": 5357,
      "湊": 5358,
      "湖": 5359,
      "湘": 5360,
      "湛": 5361,
      "湯": 5362,
      "湾": 5363,
      "湿": 5364,
      "満": 5365,
      "溉": 5366,
      "源": 5367,
      "準": 5368,
      "溜": 5369,
      "溝": 5370,
      "溟": 5371,
      "溥": 5372,
      "溪": 5373,
      "溫": 5374,
      "溺": 5375,
      "滄": 5376,
      "滅": 5377,
      "滋": 5378,
      "滑": 5379,
      "滚": 5380,
      "滝": 5381,
      "滞": 5382,
      "满": 5383,
      "滨": 5384,
      "滩": 5385,
      "滴": 5386,
      "滸": 5387,
      "滾": 5388,
      "滿": 5389,
      "漁": 5390,
      "漂": 5391,
      "漆": 5392,
      "漏": 5393,
      "漓": 5394,
      "演": 5395,
      "漕": 5396,
      "漠": 5397,
      "漢": 5398,
      "漫": 5399,
      "漬": 5400,
      "漱": 5401,
      "漳": 5402,
      "漸": 5403,
      "潍": 5404,
      "潘": 5405,
      "潛": 5406,
      "潜": 5407,
      "潞": 5408,
      "潟": 5409,
      "潤": 5410,
      "潭": 5411,
      "潮": 5412,
      "潰": 5413,
      "澄": 5414,
      "澎": 5415,
      "澡": 5416,
      "澤": 5417,
      "澳": 5418,
      "激": 5419,
      "濁": 5420,
      "濃": 5421,
      "濕": 5422,
      "濟": 5423,
      "濡": 5424,
      "濤": 5425,
      "濮": 5426,
      "濯": 5427,
      "濰": 5428,
      "濱": 5429,
      "瀑": 5430,
      "瀛": 5431,
      "瀬": 5432,
      "灋": 5433,
      "灌": 5434,
      "灣": 5435,
      "火": 5436,
      "灭": 5437,
      "灯": 5438,
      "灰": 5439,
      "灵": 5440,
      "灼": 5441,
      "災": 5442,
      "灾": 5443,
      "炉": 5444,
      "炎": 5445,
      "炒": 5446,
      "炖": 5447,
      "炙": 5448,
      "炭": 5449,
      "炮": 5450,
      "炸": 5451,
      "点": 5452,
      "為": 5453,
      "炼": 5454,
      "烂": 5455,
      "烈": 5456,
      "烏": 5457,
      "烘": 5458,
      "烛": 5459,
      "烟": 5460,
      "烤": 5461,
      "烦": 5462,
      "烧": 5463,
      "热": 5464,
      "烹": 5465,
      "焉": 5466,
      "焚": 5467,
      "無": 5468,
      "焦": 5469,
      "然": 5470,
      "焼": 5471,
      "煌": 5472,
      "煎": 5473,
      "煕": 5474,
      "煙": 5475,
      "煜": 5476,
      "煞": 5477,
      "煤": 5478,
      "煥": 5479,
      "照": 5480,
      "煮": 5481,
      "熄": 5482,
      "熊": 5483,
      "熙": 5484,
      "熟": 5485,
      "熬": 5486,
      "熱": 5487,
      "熹": 5488,
      "燃": 5489,
      "燈": 5490,
      "燉": 5491,
      "燎": 5492,
      "燒": 5493,
      "燕": 5494,
      "營": 5495,
      "燭": 5496,
      "爀": 5497,
      "爆": 5498,
      "爐": 5499,
      "爪": 5500,
      "爭": 5501,
      "爱": 5502,
      "爵": 5503,
      "父": 5504,
      "爷": 5505,
      "爸": 5506,
      "爺": 5507,
      "爾": 5508,
      "片": 5509,
      "版": 5510,
      "牌": 5511,
      "牙": 5512,
      "牛": 5513,
      "牜": 5514,
      "牟": 5515,
      "牡": 5516,
      "牢": 5517,
      "牧": 5518,
      "物": 5519,
      "牲": 5520,
      "牵": 5521,
      "特": 5522,
      "牺": 5523,
      "牽": 5524,
      "犀": 5525,
      "犠": 5526,
      "犬": 5527,
      "犯": 5528,
      "状": 5529,
      "犹": 5530,
      "狀": 5531,
      "狂": 5532,
      "狄": 5533,
      "狐": 5534,
      "狗": 5535,
      "狛": 5536,
      "狩": 5537,
      "独": 5538,
      "狭": 5539,
      "狮": 5540,
      "狱": 5541,
      "狷": 5542,
      "狸": 5543,
      "狹": 5544,
      "狼": 5545,
      "猎": 5546,
      "猛": 5547,
      "猜": 5548,
      "猟": 5549,
      "猪": 5550,
      "猫": 5551,
      "献": 5552,
      "猴": 5553,
      "猶": 5554,
      "猿": 5555,
      "獄": 5556,
      "獅": 5557,
      "獣": 5558,
      "獨": 5559,
      "獲": 5560,
      "獸": 5561,
      "獼": 5562,
      "玄": 5563,
      "率": 5564,
      "玉": 5565,
      "王": 5566,
      "玖": 5567,
      "玛": 5568,
      "玨": 5569,
      "玩": 5570,
      "玫": 5571,
      "环": 5572,
      "现": 5573,
      "玲": 5574,
      "玷": 5575,
      "玻": 5576,
      "珍": 5577,
      "珏": 5578,
      "珠": 5579,
      "班": 5580,
      "珲": 5581,
      "現": 5582,
      "球": 5583,
      "理": 5584,
      "琉": 5585,
      "琐": 5586,
      "琦": 5587,
      "琮": 5588,
      "琴": 5589,
      "琵": 5590,
      "琶": 5591,
      "瑙": 5592,
      "瑞": 5593,
      "瑟": 5594,
      "瑠": 5595,
      "瑣": 5596,
      "瑪": 5597,
      "瑰": 5598,
      "瑶": 5599,
      "瑷": 5600,
      "璃": 5601,
      "璋": 5602,
      "璐": 5603,
      "璘": 5604,
      "璜": 5605,
      "璠": 5606,
      "璧": 5607,
      "環": 5608,
      "瓊": 5609,
      "瓜": 5610,
      "瓢": 5611,
      "瓣": 5612,
      "瓦": 5613,
      "瓯": 5614,
      "瓶": 5615,
      "瓷": 5616,
      "甘": 5617,
      "甚": 5618,
      "甜": 5619,
      "生": 5620,
      "産": 5621,
      "甥": 5622,
      "用": 5623,
      "甫": 5624,
      "田": 5625,
      "由": 5626,
      "甲": 5627,
      "申": 5628,
      "电": 5629,
      "男": 5630,
      "町": 5631,
      "画": 5632,
      "畅": 5633,
      "界": 5634,
      "畏": 5635,
      "畑": 5636,
      "畔": 5637,
      "留": 5638,
      "畜": 5639,
      "畝": 5640,
      "略": 5641,
      "番": 5642,
      "畫": 5643,
      "異": 5644,
      "畳": 5645,
      "畴": 5646,
      "當": 5647,
      "畷": 5648,
      "畿": 5649,
      "疆": 5650,
      "疏": 5651,
      "疑": 5652,
      "疗": 5653,
      "疚": 5654,
      "疫": 5655,
      "疲": 5656,
      "疽": 5657,
      "疾": 5658,
      "病": 5659,
      "症": 5660,
      "痛": 5661,
      "痧": 5662,
      "痰": 5663,
      "痴": 5664,
      "痺": 5665,
      "瘋": 5666,
      "瘦": 5667,
      "療": 5668,
      "癌": 5669,
      "癖": 5670,
      "癟": 5671,
      "癸": 5672,
      "発": 5673,
      "登": 5674,
      "發": 5675,
      "白": 5676,
      "百": 5677,
      "皂": 5678,
      "的": 5679,
      "皆": 5680,
      "皇": 5681,
      "皖": 5682,
      "皮": 5683,
      "皱": 5684,
      "皿": 5685,
      "盆": 5686,
      "益": 5687,
      "盐": 5688,
      "监": 5689,
      "盒": 5690,
      "盖": 5691,
      "盗": 5692,
      "盘": 5693,
      "盛": 5694,
      "盜": 5695,
      "盟": 5696,
      "盡": 5697,
      "盤": 5698,
      "盧": 5699,
      "目": 5700,
      "盲": 5701,
      "直": 5702,
      "相": 5703,
      "盹": 5704,
      "盾": 5705,
      "省": 5706,
      "眉": 5707,
      "看": 5708,
      "県": 5709,
      "眜": 5710,
      "眞": 5711,
      "真": 5712,
      "眠": 5713,
      "眩": 5714,
      "眺": 5715,
      "眼": 5716,
      "眾": 5717,
      "着": 5718,
      "睁": 5719,
      "睏": 5720,
      "睛": 5721,
      "睞": 5722,
      "睡": 5723,
      "督": 5724,
      "睦": 5725,
      "睹": 5726,
      "睺": 5727,
      "睿": 5728,
      "瞄": 5729,
      "瞎": 5730,
      "瞑": 5731,
      "瞧": 5732,
      "瞬": 5733,
      "瞻": 5734,
      "瞿": 5735,
      "矗": 5736,
      "矛": 5737,
      "矢": 5738,
      "知": 5739,
      "矩": 5740,
      "短": 5741,
      "矮": 5742,
      "石": 5743,
      "矿": 5744,
      "码": 5745,
      "砂": 5746,
      "砌": 5747,
      "研": 5748,
      "砕": 5749,
      "砖": 5750,
      "砲": 5751,
      "破": 5752,
      "砸": 5753,
      "砺": 5754,
      "础": 5755,
      "硅": 5756,
      "硏": 5757,
      "硕": 5758,
      "硝": 5759,
      "硫": 5760,
      "硬": 5761,
      "确": 5762,
      "碁": 5763,
      "碇": 5764,
      "碍": 5765,
      "碎": 5766,
      "碑": 5767,
      "碗": 5768,
      "碟": 5769,
      "碰": 5770,
      "碱": 5771,
      "碳": 5772,
      "確": 5773,
      "磁": 5774,
      "磅": 5775,
      "磔": 5776,
      "磨": 5777,
      "磯": 5778,
      "磾": 5779,
      "礁": 5780,
      "礎": 5781,
      "礫": 5782,
      "示": 5783,
      "礼": 5784,
      "社": 5785,
      "祀": 5786,
      "祁": 5787,
      "祇": 5788,
      "祈": 5789,
      "祐": 5790,
      "祖": 5791,
      "祝": 5792,
      "神": 5793,
      "祢": 5794,
      "祥": 5795,
      "票": 5796,
      "祭": 5797,
      "祷": 5798,
      "祸": 5799,
      "禁": 5800,
      "禄": 5801,
      "禅": 5802,
      "禎": 5803,
      "福": 5804,
      "禧": 5805,
      "禪": 5806,
      "禮": 5807,
      "禹": 5808,
      "禺": 5809,
      "离": 5810,
      "禽": 5811,
      "秀": 5812,
      "私": 5813,
      "秋": 5814,
      "种": 5815,
      "科": 5816,
      "秒": 5817,
      "秘": 5818,
      "租": 5819,
      "秤": 5820,
      "秦": 5821,
      "积": 5822,
      "称": 5823,
      "秺": 5824,
      "移": 5825,
      "稀": 5826,
      "程": 5827,
      "稍": 5828,
      "稔": 5829,
      "稜": 5830,
      "種": 5831,
      "稱": 5832,
      "稲": 5833,
      "稳": 5834,
      "稻": 5835,
      "稿": 5836,
      "穂": 5837,
      "穆": 5838,
      "穌": 5839,
      "積": 5840,
      "穏": 5841,
      "穐": 5842,
      "穴": 5843,
      "究": 5844,
      "穷": 5845,
      "穹": 5846,
      "空": 5847,
      "穿": 5848,
      "突": 5849,
      "窃": 5850,
      "窄": 5851,
      "窍": 5852,
      "窑": 5853,
      "窓": 5854,
      "窖": 5855,
      "窗": 5856,
      "窜": 5857,
      "窝": 5858,
      "窟": 5859,
      "窩": 5860,
      "窪": 5861,
      "窮": 5862,
      "窿": 5863,
      "立": 5864,
      "竖": 5865,
      "站": 5866,
      "竜": 5867,
      "竞": 5868,
      "竟": 5869,
      "章": 5870,
      "童": 5871,
      "端": 5872,
      "競": 5873,
      "竹": 5874,
      "竿": 5875,
      "笈": 5876,
      "笊": 5877,
      "笋": 5878,
      "笏": 5879,
      "笑": 5880,
      "笔": 5881,
      "笙": 5882,
      "笛": 5883,
      "笠": 5884,
      "笥": 5885,
      "符": 5886,
      "笨": 5887,
      "第": 5888,
      "笹": 5889,
      "笼": 5890,
      "筆": 5891,
      "等": 5892,
      "筋": 5893,
      "筍": 5894,
      "筏": 5895,
      "筑": 5896,
      "筒": 5897,
      "答": 5898,
      "策": 5899,
      "筝": 5900,
      "筷": 5901,
      "筹": 5902,
      "签": 5903,
      "简": 5904,
      "箅": 5905,
      "箇": 5906,
      "箏": 5907,
      "箕": 5908,
      "算": 5909,
      "管": 5910,
      "箪": 5911,
      "箫": 5912,
      "箭": 5913,
      "箱": 5914,
      "箴": 5915,
      "箸": 5916,
      "節": 5917,
      "篁": 5918,
      "範": 5919,
      "篆": 5920,
      "篇": 5921,
      "築": 5922,
      "篠": 5923,
      "篤": 5924,
      "篪": 5925,
      "篭": 5926,
      "簞": 5927,
      "簡": 5928,
      "簧": 5929,
      "簸": 5930,
      "簾": 5931,
      "籍": 5932,
      "籠": 5933,
      "米": 5934,
      "类": 5935,
      "粉": 5936,
      "粋": 5937,
      "粒": 5938,
      "粗": 5939,
      "粘": 5940,
      "粟": 5941,
      "粤": 5942,
      "粥": 5943,
      "粧": 5944,
      "粪": 5945,
      "粮": 5946,
      "粱": 5947,
      "粵": 5948,
      "粹": 5949,
      "粽": 5950,
      "精": 5951,
      "粿": 5952,
      "糂": 5953,
      "糊": 5954,
      "糕": 5955,
      "糖": 5956,
      "糜": 5957,
      "糞": 5958,
      "糟": 5959,
      "糠": 5960,
      "糧": 5961,
      "糯": 5962,
      "糸": 5963,
      "系": 5964,
      "紀": 5965,
      "紂": 5966,
      "約": 5967,
      "紅": 5968,
      "紇": 5969,
      "紋": 5970,
      "納": 5971,
      "純": 5972,
      "紗": 5973,
      "紙": 5974,
      "級": 5975,
      "紛": 5976,
      "素": 5977,
      "紡": 5978,
      "索": 5979,
      "紧": 5980,
      "紫": 5981,
      "累": 5982,
      "細": 5983,
      "紹": 5984,
      "終": 5985,
      "組": 5986,
      "絆": 5987,
      "経": 5988,
      "結": 5989,
      "絕": 5990,
      "絡": 5991,
      "給": 5992,
      "統": 5993,
      "絲": 5994,
      "絵": 5995,
      "絶": 5996,
      "綏": 5997,
      "經": 5998,
      "継": 5999,
      "続": 6000,
      "綠": 6001,
      "綫": 6002,
      "維": 6003,
      "綮": 6004,
      "綯": 6005,
      "綱": 6006,
      "網": 6007,
      "綴": 6008,
      "綻": 6009,
      "綾": 6010,
      "綿": 6011,
      "緊": 6012,
      "緋": 6013,
      "総": 6014,
      "緑": 6015,
      "緒": 6016,
      "線": 6017,
      "締": 6018,
      "緣": 6019,
      "編": 6020,
      "緩": 6021,
      "練": 6022,
      "緻": 6023,
      "縁": 6024,
      "縄": 6025,
      "縛": 6026,
      "縣": 6027,
      "縦": 6028,
      "縲": 6029,
      "縺": 6030,
      "總": 6031,
      "繁": 6032,
      "織": 6033,
      "繝": 6034,
      "繞": 6035,
      "繧": 6036,
      "繩": 6037,
      "繪": 6038,
      "繼": 6039,
      "續": 6040,
      "红": 6041,
      "约": 6042,
      "级": 6043,
      "纪": 6044,
      "纭": 6045,
      "纯": 6046,
      "纲": 6047,
      "纳": 6048,
      "纵": 6049,
      "纷": 6050,
      "纸": 6051,
      "纹": 6052,
      "纽": 6053,
      "线": 6054,
      "练": 6055,
      "组": 6056,
      "绅": 6057,
      "细": 6058,
      "织": 6059,
      "终": 6060,
      "绍": 6061,
      "经": 6062,
      "绑": 6063,
      "结": 6064,
      "绕": 6065,
      "绘": 6066,
      "给": 6067,
      "络": 6068,
      "绝": 6069,
      "绞": 6070,
      "统": 6071,
      "绣": 6072,
      "绥": 6073,
      "继": 6074,
      "绩": 6075,
      "绪": 6076,
      "续": 6077,
      "绳": 6078,
      "维": 6079,
      "综": 6080,
      "绿": 6081,
      "缀": 6082,
      "缓": 6083,
      "编": 6084,
      "缘": 6085,
      "缚": 6086,
      "缝": 6087,
      "缩": 6088,
      "缴": 6089,
      "缺": 6090,
      "罐": 6091,
      "网": 6092,
      "罕": 6093,
      "罗": 6094,
      "罚": 6095,
      "罢": 6096,
      "罩": 6097,
      "罪": 6098,
      "置": 6099,
      "署": 6100,
      "羅": 6101,
      "羈": 6102,
      "羊": 6103,
      "羌": 6104,
      "美": 6105,
      "羞": 6106,
      "羡": 6107,
      "群": 6108,
      "義": 6109,
      "羹": 6110,
      "羽": 6111,
      "翁": 6112,
      "翌": 6113,
      "習": 6114,
      "翔": 6115,
      "翟": 6116,
      "翠": 6117,
      "翰": 6118,
      "翱": 6119,
      "翹": 6120,
      "翻": 6121,
      "翼": 6122,
      "耀": 6123,
      "老": 6124,
      "考": 6125,
      "者": 6126,
      "而": 6127,
      "耍": 6128,
      "耐": 6129,
      "耕": 6130,
      "耗": 6131,
      "耘": 6132,
      "耳": 6133,
      "耶": 6134,
      "耸": 6135,
      "耽": 6136,
      "聃": 6137,
      "聊": 6138,
      "聋": 6139,
      "职": 6140,
      "联": 6141,
      "聖": 6142,
      "聘": 6143,
      "聚": 6144,
      "聞": 6145,
      "聡": 6146,
      "聪": 6147,
      "聯": 6148,
      "聰": 6149,
      "聲": 6150,
      "聴": 6151,
      "聶": 6152,
      "職": 6153,
      "聽": 6154,
      "聾": 6155,
      "聿": 6156,
      "肅": 6157,
      "肉": 6158,
      "肌": 6159,
      "肓": 6160,
      "肖": 6161,
      "肘": 6162,
      "肚": 6163,
      "肝": 6164,
      "肠": 6165,
      "股": 6166,
      "肢": 6167,
      "肤": 6168,
      "肩": 6169,
      "肯": 6170,
      "育": 6171,
      "肴": 6172,
      "肺": 6173,
      "胀": 6174,
      "胁": 6175,
      "胃": 6176,
      "胆": 6177,
      "背": 6178,
      "胎": 6179,
      "胖": 6180,
      "胜": 6181,
      "胞": 6182,
      "胡": 6183,
      "胯": 6184,
      "胳": 6185,
      "胴": 6186,
      "胶": 6187,
      "胸": 6188,
      "能": 6189,
      "脂": 6190,
      "脆": 6191,
      "脇": 6192,
      "脈": 6193,
      "脉": 6194,
      "脊": 6195,
      "脏": 6196,
      "脑": 6197,
      "脖": 6198,
      "脚": 6199,
      "脱": 6200,
      "脳": 6201,
      "脷": 6202,
      "脸": 6203,
      "脹": 6204,
      "脾": 6205,
      "腊": 6206,
      "腋": 6207,
      "腐": 6208,
      "腑": 6209,
      "腔": 6210,
      "腕": 6211,
      "腦": 6212,
      "腰": 6213,
      "腳": 6214,
      "腹": 6215,
      "腺": 6216,
      "腾": 6217,
      "腿": 6218,
      "膀": 6219,
      "膊": 6220,
      "膏": 6221,
      "膚": 6222,
      "膜": 6223,
      "膝": 6224,
      "膠": 6225,
      "膨": 6226,
      "膲": 6227,
      "膳": 6228,
      "膽": 6229,
      "臂": 6230,
      "臉": 6231,
      "臐": 6232,
      "臣": 6233,
      "臥": 6234,
      "臨": 6235,
      "自": 6236,
      "臭": 6237,
      "至": 6238,
      "致": 6239,
      "臺": 6240,
      "臼": 6241,
      "舅": 6242,
      "與": 6243,
      "興": 6244,
      "舉": 6245,
      "舊": 6246,
      "舌": 6247,
      "舍": 6248,
      "舎": 6249,
      "舒": 6250,
      "舗": 6251,
      "舘": 6252,
      "舜": 6253,
      "舞": 6254,
      "舟": 6255,
      "航": 6256,
      "般": 6257,
      "舰": 6258,
      "舵": 6259,
      "船": 6260,
      "艇": 6261,
      "艘": 6262,
      "艦": 6263,
      "良": 6264,
      "艰": 6265,
      "艱": 6266,
      "色": 6267,
      "艶": 6268,
      "艺": 6269,
      "艾": 6270,
      "节": 6271,
      "芋": 6272,
      "芍": 6273,
      "芒": 6274,
      "芜": 6275,
      "芝": 6276,
      "芥": 6277,
      "芭": 6278,
      "花": 6279,
      "芳": 6280,
      "芸": 6281,
      "芹": 6282,
      "芽": 6283,
      "芾": 6284,
      "苁": 6285,
      "苅": 6286,
      "苍": 6287,
      "苏": 6288,
      "苑": 6289,
      "苔": 6290,
      "苗": 6291,
      "若": 6292,
      "苦": 6293,
      "苫": 6294,
      "英": 6295,
      "苹": 6296,
      "茂": 6297,
      "范": 6298,
      "茄": 6299,
      "茅": 6300,
      "茗": 6301,
      "茨": 6302,
      "茲": 6303,
      "茶": 6304,
      "茸": 6305,
      "荀": 6306,
      "荆": 6307,
      "草": 6308,
      "荊": 6309,
      "荏": 6310,
      "荐": 6311,
      "荒": 6312,
      "荔": 6313,
      "荘": 6314,
      "荚": 6315,
      "荠": 6316,
      "荣": 6317,
      "荪": 6318,
      "荫": 6319,
      "药": 6320,
      "荷": 6321,
      "荸": 6322,
      "荻": 6323,
      "荼": 6324,
      "莆": 6325,
      "莉": 6326,
      "莊": 6327,
      "莎": 6328,
      "莞": 6329,
      "莟": 6330,
      "莫": 6331,
      "莲": 6332,
      "获": 6333,
      "菅": 6334,
      "菇": 6335,
      "菊": 6336,
      "菌": 6337,
      "菓": 6338,
      "菜": 6339,
      "菩": 6340,
      "華": 6341,
      "菱": 6342,
      "菲": 6343,
      "菴": 6344,
      "萌": 6345,
      "萎": 6346,
      "萝": 6347,
      "萣": 6348,
      "营": 6349,
      "萦": 6350,
      "萧": 6351,
      "萨": 6352,
      "萩": 6353,
      "萬": 6354,
      "萱": 6355,
      "落": 6356,
      "葉": 6357,
      "著": 6358,
      "葛": 6359,
      "葡": 6360,
      "董": 6361,
      "葩": 6362,
      "葱": 6363,
      "葵": 6364,
      "蒂": 6365,
      "蒙": 6366,
      "蒟": 6367,
      "蒲": 6368,
      "蒸": 6369,
      "蒻": 6370,
      "蒼": 6371,
      "蓄": 6372,
      "蓉": 6373,
      "蓋": 6374,
      "蓝": 6375,
      "蓟": 6376,
      "蓬": 6377,
      "蓮": 6378,
      "蔔": 6379,
      "蔘": 6380,
      "蔡": 6381,
      "蔣": 6382,
      "蔥": 6383,
      "蔦": 6384,
      "蔬": 6385,
      "蔭": 6386,
      "蔵": 6387,
      "蔽": 6388,
      "蕃": 6389,
      "蕉": 6390,
      "蕙": 6391,
      "蕨": 6392,
      "蕩": 6393,
      "蕪": 6394,
      "薄": 6395,
      "薇": 6396,
      "薑": 6397,
      "薔": 6398,
      "薙": 6399,
      "薛": 6400,
      "薦": 6401,
      "薩": 6402,
      "薫": 6403,
      "薬": 6404,
      "薯": 6405,
      "薺": 6406,
      "藍": 6407,
      "藏": 6408,
      "藜": 6409,
      "藝": 6410,
      "藤": 6411,
      "藥": 6412,
      "藩": 6413,
      "藻": 6414,
      "蘆": 6415,
      "蘇": 6416,
      "蘊": 6417,
      "蘋": 6418,
      "蘭": 6419,
      "蘿": 6420,
      "虎": 6421,
      "虐": 6422,
      "虑": 6423,
      "虔": 6424,
      "處": 6425,
      "虚": 6426,
      "虛": 6427,
      "號": 6428,
      "虧": 6429,
      "虫": 6430,
      "虬": 6431,
      "虹": 6432,
      "虽": 6433,
      "虾": 6434,
      "蚊": 6435,
      "蚌": 6436,
      "蚕": 6437,
      "蚤": 6438,
      "蛇": 6439,
      "蛋": 6440,
      "蛍": 6441,
      "蛙": 6442,
      "蛟": 6443,
      "蛮": 6444,
      "蛯": 6445,
      "蛰": 6446,
      "蜀": 6447,
      "蜂": 6448,
      "蜜": 6449,
      "蜡": 6450,
      "蜩": 6451,
      "蝇": 6452,
      "蝉": 6453,
      "蝦": 6454,
      "蝴": 6455,
      "蝶": 6456,
      "螂": 6457,
      "融": 6458,
      "蟄": 6459,
      "蟑": 6460,
      "蟲": 6461,
      "蟹": 6462,
      "蠟": 6463,
      "蠢": 6464,
      "蠶": 6465,
      "蠻": 6466,
      "血": 6467,
      "衆": 6468,
      "行": 6469,
      "衍": 6470,
      "術": 6471,
      "街": 6472,
      "衙": 6473,
      "衛": 6474,
      "衞": 6475,
      "衡": 6476,
      "衣": 6477,
      "补": 6478,
      "表": 6479,
      "衫": 6480,
      "衷": 6481,
      "袁": 6482,
      "袈": 6483,
      "袋": 6484,
      "袍": 6485,
      "袖": 6486,
      "袜": 6487,
      "被": 6488,
      "裁": 6489,
      "裂": 6490,
      "装": 6491,
      "裏": 6492,
      "裔": 6493,
      "裕": 6494,
      "裙": 6495,
      "補": 6496,
      "裝": 6497,
      "裟": 6498,
      "裡": 6499,
      "裳": 6500,
      "裹": 6501,
      "製": 6502,
      "複": 6503,
      "褐": 6504,
      "褪": 6505,
      "襄": 6506,
      "襟": 6507,
      "襯": 6508,
      "襲": 6509,
      "西": 6510,
      "要": 6511,
      "覆": 6512,
      "覇": 6513,
      "見": 6514,
      "規": 6515,
      "視": 6516,
      "覚": 6517,
      "覧": 6518,
      "親": 6519,
      "観": 6520,
      "覺": 6521,
      "覽": 6522,
      "觀": 6523,
      "见": 6524,
      "观": 6525,
      "规": 6526,
      "视": 6527,
      "览": 6528,
      "觉": 6529,
      "角": 6530,
      "解": 6531,
      "触": 6532,
      "言": 6533,
      "訂": 6534,
      "計": 6535,
      "討": 6536,
      "訓": 6537,
      "記": 6538,
      "訪": 6539,
      "設": 6540,
      "許": 6541,
      "訳": 6542,
      "訴": 6543,
      "診": 6544,
      "註": 6545,
      "証": 6546,
      "詐": 6547,
      "評": 6548,
      "詞": 6549,
      "試": 6550,
      "詩": 6551,
      "詰": 6552,
      "話": 6553,
      "該": 6554,
      "詳": 6555,
      "誉": 6556,
      "誌": 6557,
      "認": 6558,
      "誒": 6559,
      "誕": 6560,
      "誘": 6561,
      "語": 6562,
      "誤": 6563,
      "說": 6564,
      "説": 6565,
      "読": 6566,
      "誰": 6567,
      "課": 6568,
      "誹": 6569,
      "調": 6570,
      "談": 6571,
      "請": 6572,
      "諏": 6573,
      "論": 6574,
      "諧": 6575,
      "諭": 6576,
      "諸": 6577,
      "諾": 6578,
      "謀": 6579,
      "謂": 6580,
      "謎": 6581,
      "謔": 6582,
      "謙": 6583,
      "講": 6584,
      "謝": 6585,
      "謡": 6586,
      "謨": 6587,
      "謹": 6588,
      "證": 6589,
      "譖": 6590,
      "識": 6591,
      "譚": 6592,
      "譛": 6593,
      "譜": 6594,
      "警": 6595,
      "譯": 6596,
      "議": 6597,
      "譲": 6598,
      "護": 6599,
      "讀": 6600,
      "變": 6601,
      "讓": 6602,
      "讚": 6603,
      "计": 6604,
      "订": 6605,
      "认": 6606,
      "讨": 6607,
      "让": 6608,
      "训": 6609,
      "议": 6610,
      "讯": 6611,
      "记": 6612,
      "讲": 6613,
      "许": 6614,
      "论": 6615,
      "设": 6616,
      "访": 6617,
      "证": 6618,
      "评": 6619,
      "识": 6620,
      "诈": 6621,
      "诉": 6622,
      "诊": 6623,
      "词": 6624,
      "译": 6625,
      "试": 6626,
      "诗": 6627,
      "诚": 6628,
      "诛": 6629,
      "话": 6630,
      "询": 6631,
      "该": 6632,
      "详": 6633,
      "语": 6634,
      "误": 6635,
      "诱": 6636,
      "说": 6637,
      "诵": 6638,
      "请": 6639,
      "诸": 6640,
      "诺": 6641,
      "读": 6642,
      "课": 6643,
      "谀": 6644,
      "谁": 6645,
      "调": 6646,
      "谅": 6647,
      "谈": 6648,
      "谊": 6649,
      "谋": 6650,
      "谎": 6651,
      "谐": 6652,
      "谓": 6653,
      "谚": 6654,
      "谜": 6655,
      "谢": 6656,
      "谦": 6657,
      "谨": 6658,
      "谬": 6659,
      "谭": 6660,
      "谱": 6661,
      "谷": 6662,
      "豆": 6663,
      "豉": 6664,
      "豊": 6665,
      "豐": 6666,
      "豚": 6667,
      "象": 6668,
      "豪": 6669,
      "豫": 6670,
      "豹": 6671,
      "豺": 6672,
      "貅": 6673,
      "貌": 6674,
      "貎": 6675,
      "貓": 6676,
      "貔": 6677,
      "貝": 6678,
      "貞": 6679,
      "負": 6680,
      "財": 6681,
      "貢": 6682,
      "貧": 6683,
      "貨": 6684,
      "販": 6685,
      "貫": 6686,
      "責": 6687,
      "貴": 6688,
      "買": 6689,
      "費": 6690,
      "貼": 6691,
      "貿": 6692,
      "賀": 6693,
      "賃": 6694,
      "賄": 6695,
      "資": 6696,
      "賈": 6697,
      "賊": 6698,
      "賑": 6699,
      "賓": 6700,
      "賛": 6701,
      "賜": 6702,
      "賞": 6703,
      "賠": 6704,
      "賢": 6705,
      "賣": 6706,
      "質": 6707,
      "賭": 6708,
      "賴": 6709,
      "賺": 6710,
      "購": 6711,
      "賽": 6712,
      "贈": 6713,
      "贊": 6714,
      "贛": 6715,
      "贝": 6716,
      "负": 6717,
      "贡": 6718,
      "财": 6719,
      "责": 6720,
      "贤": 6721,
      "败": 6722,
      "货": 6723,
      "质": 6724,
      "贪": 6725,
      "贫": 6726,
      "贬": 6727,
      "购": 6728,
      "贯": 6729,
      "贰": 6730,
      "贱": 6731,
      "贴": 6732,
      "贵": 6733,
      "贸": 6734,
      "费": 6735,
      "贺": 6736,
      "贼": 6737,
      "贾": 6738,
      "赃": 6739,
      "资": 6740,
      "赋": 6741,
      "赏": 6742,
      "赐": 6743,
      "赖": 6744,
      "赛": 6745,
      "赞": 6746,
      "赣": 6747,
      "赤": 6748,
      "赫": 6749,
      "赭": 6750,
      "走": 6751,
      "赵": 6752,
      "赶": 6753,
      "起": 6754,
      "趁": 6755,
      "超": 6756,
      "越": 6757,
      "趋": 6758,
      "趙": 6759,
      "趣": 6760,
      "足": 6761,
      "趴": 6762,
      "趾": 6763,
      "跃": 6764,
      "跆": 6765,
      "跌": 6766,
      "跑": 6767,
      "跖": 6768,
      "距": 6769,
      "跟": 6770,
      "跡": 6771,
      "路": 6772,
      "跳": 6773,
      "践": 6774,
      "跷": 6775,
      "踊": 6776,
      "踏": 6777,
      "踐": 6778,
      "踪": 6779,
      "踵": 6780,
      "蹄": 6781,
      "蹈": 6782,
      "蹊": 6783,
      "蹦": 6784,
      "蹴": 6785,
      "蹶": 6786,
      "躍": 6787,
      "躑": 6788,
      "身": 6789,
      "躬": 6790,
      "躯": 6791,
      "躲": 6792,
      "躺": 6793,
      "車": 6794,
      "軌": 6795,
      "軍": 6796,
      "軒": 6797,
      "軟": 6798,
      "転": 6799,
      "軸": 6800,
      "軻": 6801,
      "軾": 6802,
      "較": 6803,
      "載": 6804,
      "輔": 6805,
      "輕": 6806,
      "輛": 6807,
      "輝": 6808,
      "輩": 6809,
      "輪": 6810,
      "輯": 6811,
      "輸": 6812,
      "轄": 6813,
      "轉": 6814,
      "车": 6815,
      "轧": 6816,
      "轨": 6817,
      "轩": 6818,
      "转": 6819,
      "轮": 6820,
      "软": 6821,
      "轴": 6822,
      "轻": 6823,
      "载": 6824,
      "轿": 6825,
      "较": 6826,
      "辅": 6827,
      "辆": 6828,
      "辈": 6829,
      "辉": 6830,
      "辑": 6831,
      "输": 6832,
      "辖": 6833,
      "辗": 6834,
      "辛": 6835,
      "辞": 6836,
      "辣": 6837,
      "辨": 6838,
      "辩": 6839,
      "辭": 6840,
      "辰": 6841,
      "農": 6842,
      "边": 6843,
      "辺": 6844,
      "辻": 6845,
      "込": 6846,
      "辽": 6847,
      "达": 6848,
      "迁": 6849,
      "迅": 6850,
      "过": 6851,
      "迈": 6852,
      "迎": 6853,
      "运": 6854,
      "近": 6855,
      "返": 6856,
      "还": 6857,
      "这": 6858,
      "进": 6859,
      "远": 6860,
      "违": 6861,
      "连": 6862,
      "迟": 6863,
      "迢": 6864,
      "迦": 6865,
      "迫": 6866,
      "述": 6867,
      "迴": 6868,
      "迷": 6869,
      "迹": 6870,
      "追": 6871,
      "退": 6872,
      "送": 6873,
      "适": 6874,
      "逃": 6875,
      "逅": 6876,
      "逆": 6877,
      "选": 6878,
      "透": 6879,
      "逐": 6880,
      "递": 6881,
      "途": 6882,
      "逗": 6883,
      "這": 6884,
      "通": 6885,
      "逝": 6886,
      "速": 6887,
      "造": 6888,
      "逢": 6889,
      "連": 6890,
      "週": 6891,
      "進": 6892,
      "逵": 6893,
      "逸": 6894,
      "逻": 6895,
      "逼": 6896,
      "遅": 6897,
      "遇": 6898,
      "遊": 6899,
      "運": 6900,
      "遍": 6901,
      "過": 6902,
      "遐": 6903,
      "道": 6904,
      "達": 6905,
      "違": 6906,
      "遗": 6907,
      "遞": 6908,
      "遠": 6909,
      "遣": 6910,
      "適": 6911,
      "遭": 6912,
      "遮": 6913,
      "遲": 6914,
      "遵": 6915,
      "遷": 6916,
      "選": 6917,
      "遺": 6918,
      "避": 6919,
      "邀": 6920,
      "邂": 6921,
      "還": 6922,
      "邊": 6923,
      "邑": 6924,
      "邓": 6925,
      "邢": 6926,
      "那": 6927,
      "邦": 6928,
      "邪": 6929,
      "邮": 6930,
      "邱": 6931,
      "邵": 6932,
      "邸": 6933,
      "邺": 6934,
      "郁": 6935,
      "郊": 6936,
      "郎": 6937,
      "郑": 6938,
      "郝": 6939,
      "郡": 6940,
      "部": 6941,
      "郭": 6942,
      "郵": 6943,
      "郷": 6944,
      "都": 6945,
      "鄂": 6946,
      "鄉": 6947,
      "鄕": 6948,
      "鄭": 6949,
      "鄯": 6950,
      "鄰": 6951,
      "鄱": 6952,
      "酉": 6953,
      "酌": 6954,
      "配": 6955,
      "酎": 6956,
      "酒": 6957,
      "酔": 6958,
      "酢": 6959,
      "酥": 6960,
      "酬": 6961,
      "酱": 6962,
      "酷": 6963,
      "酸": 6964,
      "酿": 6965,
      "醂": 6966,
      "醉": 6967,
      "醋": 6968,
      "醍": 6969,
      "醐": 6970,
      "醒": 6971,
      "醜": 6972,
      "醤": 6973,
      "醫": 6974,
      "醬": 6975,
      "采": 6976,
      "釈": 6977,
      "释": 6978,
      "釋": 6979,
      "里": 6980,
      "重": 6981,
      "野": 6982,
      "量": 6983,
      "金": 6984,
      "釜": 6985,
      "針": 6986,
      "釣": 6987,
      "釧": 6988,
      "釵": 6989,
      "鈍": 6990,
      "鈴": 6991,
      "鉄": 6992,
      "鉛": 6993,
      "鉢": 6994,
      "鉾": 6995,
      "銀": 6996,
      "銑": 6997,
      "銘": 6998,
      "銭": 6999,
      "鋒": 7000,
      "鋤": 7001,
      "鋭": 7002,
      "鋼": 7003,
      "錄": 7004,
      "錆": 7005,
      "錐": 7006,
      "錕": 7007,
      "錘": 7008,
      "錢": 7009,
      "錦": 7010,
      "錫": 7011,
      "錬": 7012,
      "錯": 7013,
      "録": 7014,
      "鍋": 7015,
      "鍔": 7016,
      "鍠": 7017,
      "鍵": 7018,
      "鎌": 7019,
      "鎔": 7020,
      "鎖": 7021,
      "鎬": 7022,
      "鎮": 7023,
      "鏑": 7024,
      "鏡": 7025,
      "鏢": 7026,
      "鐘": 7027,
      "鐵": 7028,
      "鐺": 7029,
      "鑊": 7030,
      "鑑": 7031,
      "针": 7032,
      "钟": 7033,
      "钢": 7034,
      "钥": 7035,
      "钦": 7036,
      "钧": 7037,
      "钰": 7038,
      "钱": 7039,
      "铁": 7040,
      "铅": 7041,
      "铜": 7042,
      "铭": 7043,
      "银": 7044,
      "铸": 7045,
      "铺": 7046,
      "链": 7047,
      "销": 7048,
      "锁": 7049,
      "锅": 7050,
      "锋": 7051,
      "锐": 7052,
      "错": 7053,
      "锡": 7054,
      "锤": 7055,
      "锦": 7056,
      "键": 7057,
      "锵": 7058,
      "锻": 7059,
      "镇": 7060,
      "镐": 7061,
      "镕": 7062,
      "镜": 7063,
      "镬": 7064,
      "镰": 7065,
      "長": 7066,
      "长": 7067,
      "門": 7068,
      "閃": 7069,
      "閉": 7070,
      "開": 7071,
      "閑": 7072,
      "間": 7073,
      "関": 7074,
      "閣": 7075,
      "閧": 7076,
      "閩": 7077,
      "閱": 7078,
      "闌": 7079,
      "闘": 7080,
      "關": 7081,
      "门": 7082,
      "闪": 7083,
      "闭": 7084,
      "问": 7085,
      "闰": 7086,
      "闲": 7087,
      "闳": 7088,
      "间": 7089,
      "闹": 7090,
      "闻": 7091,
      "闽": 7092,
      "阁": 7093,
      "阅": 7094,
      "阐": 7095,
      "阔": 7096,
      "阜": 7097,
      "队": 7098,
      "阪": 7099,
      "阮": 7100,
      "阱": 7101,
      "防": 7102,
      "阳": 7103,
      "阴": 7104,
      "阵": 7105,
      "阶": 7106,
      "阻": 7107,
      "阿": 7108,
      "陀": 7109,
      "附": 7110,
      "际": 7111,
      "陆": 7112,
      "陈": 7113,
      "陋": 7114,
      "陌": 7115,
      "降": 7116,
      "限": 7117,
      "陕": 7118,
      "陛": 7119,
      "院": 7120,
      "陣": 7121,
      "除": 7122,
      "陥": 7123,
      "险": 7124,
      "陪": 7125,
      "陬": 7126,
      "陰": 7127,
      "陳": 7128,
      "陵": 7129,
      "陶": 7130,
      "陷": 7131,
      "陸": 7132,
      "険": 7133,
      "陽": 7134,
      "隅": 7135,
      "隆": 7136,
      "隈": 7137,
      "隊": 7138,
      "隋": 7139,
      "隍": 7140,
      "階": 7141,
      "随": 7142,
      "隐": 7143,
      "隔": 7144,
      "隙": 7145,
      "際": 7146,
      "障": 7147,
      "隠": 7148,
      "隣": 7149,
      "隨": 7150,
      "隱": 7151,
      "隷": 7152,
      "隸": 7153,
      "隻": 7154,
      "隼": 7155,
      "难": 7156,
      "雀": 7157,
      "雄": 7158,
      "雅": 7159,
      "集": 7160,
      "雉": 7161,
      "雌": 7162,
      "雍": 7163,
      "雏": 7164,
      "雑": 7165,
      "雕": 7166,
      "雖": 7167,
      "雙": 7168,
      "雛": 7169,
      "雜": 7170,
      "雞": 7171,
      "離": 7172,
      "難": 7173,
      "雨": 7174,
      "雪": 7175,
      "雫": 7176,
      "雲": 7177,
      "零": 7178,
      "雷": 7179,
      "雹": 7180,
      "電": 7181,
      "雾": 7182,
      "需": 7183,
      "震": 7184,
      "霊": 7185,
      "霍": 7186,
      "霓": 7187,
      "霜": 7188,
      "霞": 7189,
      "霧": 7190,
      "露": 7191,
      "靈": 7192,
      "靑": 7193,
      "青": 7194,
      "靖": 7195,
      "静": 7196,
      "靜": 7197,
      "非": 7198,
      "靠": 7199,
      "面": 7200,
      "革": 7201,
      "靴": 7202,
      "靼": 7203,
      "鞊": 7204,
      "鞋": 7205,
      "鞍": 7206,
      "鞏": 7207,
      "鞘": 7208,
      "鞜": 7209,
      "鞠": 7210,
      "韃": 7211,
      "韓": 7212,
      "韦": 7213,
      "韩": 7214,
      "音": 7215,
      "韶": 7216,
      "響": 7217,
      "頁": 7218,
      "頃": 7219,
      "項": 7220,
      "順": 7221,
      "須": 7222,
      "預": 7223,
      "頓": 7224,
      "領": 7225,
      "頡": 7226,
      "頤": 7227,
      "頬": 7228,
      "頭": 7229,
      "頸": 7230,
      "頼": 7231,
      "顆": 7232,
      "題": 7233,
      "額": 7234,
      "顎": 7235,
      "顏": 7236,
      "顔": 7237,
      "顕": 7238,
      "願": 7239,
      "類": 7240,
      "顧": 7241,
      "顯": 7242,
      "页": 7243,
      "顶": 7244,
      "项": 7245,
      "顺": 7246,
      "须": 7247,
      "顽": 7248,
      "顾": 7249,
      "顿": 7250,
      "颂": 7251,
      "预": 7252,
      "领": 7253,
      "颇": 7254,
      "颈": 7255,
      "频": 7256,
      "颗": 7257,
      "题": 7258,
      "颜": 7259,
      "额": 7260,
      "颠": 7261,
      "風": 7262,
      "颯": 7263,
      "颱": 7264,
      "颶": 7265,
      "飄": 7266,
      "风": 7267,
      "飓": 7268,
      "飘": 7269,
      "飛": 7270,
      "飞": 7271,
      "食": 7272,
      "飩": 7273,
      "飮": 7274,
      "飯": 7275,
      "飲": 7276,
      "飼": 7277,
      "飽": 7278,
      "飾": 7279,
      "餃": 7280,
      "餅": 7281,
      "養": 7282,
      "餐": 7283,
      "餓": 7284,
      "餘": 7285,
      "餛": 7286,
      "餜": 7287,
      "餠": 7288,
      "餡": 7289,
      "館": 7290,
      "饂": 7291,
      "饃": 7292,
      "饅": 7293,
      "饑": 7294,
      "饒": 7295,
      "饥": 7296,
      "饪": 7297,
      "饭": 7298,
      "饮": 7299,
      "饰": 7300,
      "饱": 7301,
      "饶": 7302,
      "饺": 7303,
      "饼": 7304,
      "馄": 7305,
      "馆": 7306,
      "馈": 7307,
      "馍": 7308,
      "馒": 7309,
      "首": 7310,
      "香": 7311,
      "馬": 7312,
      "馮": 7313,
      "馴": 7314,
      "駄": 7315,
      "駅": 7316,
      "駆": 7317,
      "駐": 7318,
      "駒": 7319,
      "駕": 7320,
      "駘": 7321,
      "駛": 7322,
      "駱": 7323,
      "駿": 7324,
      "騎": 7325,
      "騒": 7326,
      "験": 7327,
      "騨": 7328,
      "驅": 7329,
      "驕": 7330,
      "驗": 7331,
      "驚": 7332,
      "驪": 7333,
      "马": 7334,
      "驯": 7335,
      "驰": 7336,
      "驱": 7337,
      "驳": 7338,
      "驴": 7339,
      "驶": 7340,
      "驷": 7341,
      "驹": 7342,
      "驼": 7343,
      "骂": 7344,
      "骄": 7345,
      "骆": 7346,
      "验": 7347,
      "骑": 7348,
      "骗": 7349,
      "骚": 7350,
      "骤": 7351,
      "骨": 7352,
      "髄": 7353,
      "體": 7354,
      "高": 7355,
      "髪": 7356,
      "髮": 7357,
      "髯": 7358,
      "鬃": 7359,
      "鬆": 7360,
      "鬧": 7361,
      "鬱": 7362,
      "鬼": 7363,
      "魂": 7364,
      "魏": 7365,
      "魔": 7366,
      "魚": 7367,
      "魯": 7368,
      "鮎": 7369,
      "鮨": 7370,
      "鮫": 7371,
      "鮭": 7372,
      "鮮": 7373,
      "鯀": 7374,
      "鯉": 7375,
      "鯛": 7376,
      "鯨": 7377,
      "鯰": 7378,
      "鯽": 7379,
      "鰹": 7380,
      "鱒": 7381,
      "鱗": 7382,
      "鱼": 7383,
      "鲁": 7384,
      "鲜": 7385,
      "鲫": 7386,
      "鳖": 7387,
      "鳞": 7388,
      "鳥": 7389,
      "鳧": 7390,
      "鳩": 7391,
      "鳳": 7392,
      "鳴": 7393,
      "鴇": 7394,
      "鴎": 7395,
      "鴛": 7396,
      "鴞": 7397,
      "鴦": 7398,
      "鴨": 7399,
      "鴻": 7400,
      "鴾": 7401,
      "鴿": 7402,
      "鵇": 7403,
      "鵜": 7404,
      "鵬": 7405,
      "鵰": 7406,
      "鵲": 7407,
      "鶏": 7408,
      "鶯": 7409,
      "鶴": 7410,
      "鷄": 7411,
      "鷈": 7412,
      "鷗": 7413,
      "鷲": 7414,
      "鷹": 7415,
      "鷺": 7416,
      "鷿": 7417,
      "鸟": 7418,
      "鸡": 7419,
      "鸣": 7420,
      "鸦": 7421,
      "鸭": 7422,
      "鸮": 7423,
      "鸯": 7424,
      "鸳": 7425,
      "鸽": 7426,
      "鸿": 7427,
      "鹅": 7428,
      "鹏": 7429,
      "鹗": 7430,
      "鹤": 7431,
      "鹰": 7432,
      "鹳": 7433,
      "鹽": 7434,
      "鹿": 7435,
      "麋": 7436,
      "麒": 7437,
      "麗": 7438,
      "麟": 7439,
      "麥": 7440,
      "麦": 7441,
      "麩": 7442,
      "麵": 7443,
      "麸": 7444,
      "麹": 7445,
      "麻": 7446,
      "麼": 7447,
      "麿": 7448,
      "黃": 7449,
      "黄": 7450,
      "黍": 7451,
      "黎": 7452,
      "黑": 7453,
      "黒": 7454,
      "默": 7455,
      "黙": 7456,
      "黛": 7457,
      "點": 7458,
      "黨": 7459,
      "黻": 7460,
      "鼎": 7461,
      "鼓": 7462,
      "鼠": 7463,
      "鼻": 7464,
      "齊": 7465,
      "齋": 7466,
      "齐": 7467,
      "齢": 7468,
      "齧": 7469,
      "齿": 7470,
      "龄": 7471,
      "龍": 7472,
      "龙": 7473,
      "龜": 7474,
      "龝": 7475,
      "龟": 7476,
      "Ꙉ": 7477,
      "ꙉ": 7478,
      "ꙗ": 7479,
      "ꜜ": 7480,
      "ꜣ": 7481,
      "ꜥ": 7482,
      "ꞑ": 7483,
      "꠆": 7484,
      "ꦏ": 7485,
      "ꦕ": 7486,
      "ꦤ": 7487,
      "ꦫ": 7488,
      "ꦲ": 7489,
      "꧀": 7490,
      "가": 7491,
      "각": 7492,
      "간": 7493,
      "갈": 7494,
      "감": 7495,
      "강": 7496,
      "같": 7497,
      "개": 7498,
      "거": 7499,
      "건": 7500,
      "검": 7501,
      "것": 7502,
      "게": 7503,
      "겨": 7504,
      "격": 7505,
      "견": 7506,
      "결": 7507,
      "겹": 7508,
      "경": 7509,
      "계": 7510,
      "고": 7511,
      "곡": 7512,
      "골": 7513,
      "곰": 7514,
      "공": 7515,
      "과": 7516,
      "관": 7517,
      "광": 7518,
      "교": 7519,
      "구": 7520,
      "국": 7521,
      "군": 7522,
      "굴": 7523,
      "궁": 7524,
      "권": 7525,
      "귀": 7526,
      "규": 7527,
      "귤": 7528,
      "그": 7529,
      "극": 7530,
      "근": 7531,
      "글": 7532,
      "금": 7533,
      "급": 7534,
      "기": 7535,
      "긴": 7536,
      "길": 7537,
      "김": 7538,
      "깃": 7539,
      "까": 7540,
      "깨": 7541,
      "깻": 7542,
      "께": 7543,
      "꽃": 7544,
      "꾸": 7545,
      "꿈": 7546,
      "끝": 7547,
      "나": 7548,
      "낙": 7549,
      "난": 7550,
      "날": 7551,
      "남": 7552,
      "낭": 7553,
      "낱": 7554,
      "내": 7555,
      "낸": 7556,
      "냈": 7557,
      "냉": 7558,
      "냐": 7559,
      "너": 7560,
      "널": 7561,
      "넘": 7562,
      "네": 7563,
      "넷": 7564,
      "녀": 7565,
      "녁": 7566,
      "년": 7567,
      "념": 7568,
      "녕": 7569,
      "노": 7570,
      "녹": 7571,
      "놀": 7572,
      "농": 7573,
      "높": 7574,
      "뇌": 7575,
      "뇨": 7576,
      "누": 7577,
      "눈": 7578,
      "뉘": 7579,
      "뉴": 7580,
      "느": 7581,
      "는": 7582,
      "늘": 7583,
      "능": 7584,
      "늦": 7585,
      "늬": 7586,
      "니": 7587,
      "닐": 7588,
      "다": 7589,
      "단": 7590,
      "닫": 7591,
      "달": 7592,
      "닭": 7593,
      "담": 7594,
      "답": 7595,
      "당": 7596,
      "대": 7597,
      "댐": 7598,
      "더": 7599,
      "덕": 7600,
      "던": 7601,
      "덧": 7602,
      "데": 7603,
      "도": 7604,
      "독": 7605,
      "돈": 7606,
      "돗": 7607,
      "동": 7608,
      "돼": 7609,
      "되": 7610,
      "된": 7611,
      "됨": 7612,
      "두": 7613,
      "둑": 7614,
      "둘": 7615,
      "둣": 7616,
      "뒤": 7617,
      "드": 7618,
      "득": 7619,
      "든": 7620,
      "듣": 7621,
      "들": 7622,
      "등": 7623,
      "디": 7624,
      "딩": 7625,
      "따": 7626,
      "딱": 7627,
      "땅": 7628,
      "때": 7629,
      "땝": 7630,
      "떡": 7631,
      "또": 7632,
      "똑": 7633,
      "뜻": 7634,
      "라": 7635,
      "락": 7636,
      "란": 7637,
      "람": 7638,
      "랑": 7639,
      "래": 7640,
      "랜": 7641,
      "량": 7642,
      "러": 7643,
      "런": 7644,
      "럼": 7645,
      "럽": 7646,
      "렇": 7647,
      "레": 7648,
      "렉": 7649,
      "려": 7650,
      "력": 7651,
      "련": 7652,
      "렬": 7653,
      "령": 7654,
      "례": 7655,
      "로": 7656,
      "록": 7657,
      "론": 7658,
      "롤": 7659,
      "롬": 7660,
      "롭": 7661,
      "료": 7662,
      "룡": 7663,
      "루": 7664,
      "룰": 7665,
      "룹": 7666,
      "뤼": 7667,
      "류": 7668,
      "률": 7669,
      "르": 7670,
      "른": 7671,
      "를": 7672,
      "름": 7673,
      "릉": 7674,
      "리": 7675,
      "린": 7676,
      "릴": 7677,
      "림": 7678,
      "립": 7679,
      "릿": 7680,
      "마": 7681,
      "만": 7682,
      "많": 7683,
      "말": 7684,
      "맑": 7685,
      "망": 7686,
      "매": 7687,
      "머": 7688,
      "멋": 7689,
      "메": 7690,
      "멘": 7691,
      "멜": 7692,
      "며": 7693,
      "면": 7694,
      "명": 7695,
      "모": 7696,
      "목": 7697,
      "못": 7698,
      "몽": 7699,
      "묘": 7700,
      "무": 7701,
      "묵": 7702,
      "문": 7703,
      "물": 7704,
      "뭘": 7705,
      "뮤": 7706,
      "미": 7707,
      "민": 7708,
      "밀": 7709,
      "바": 7710,
      "박": 7711,
      "반": 7712,
      "발": 7713,
      "밤": 7714,
      "밥": 7715,
      "방": 7716,
      "배": 7717,
      "백": 7718,
      "밴": 7719,
      "뱀": 7720,
      "뱅": 7721,
      "버": 7722,
      "번": 7723,
      "벌": 7724,
      "범": 7725,
      "법": 7726,
      "베": 7727,
      "벨": 7728,
      "변": 7729,
      "별": 7730,
      "병": 7731,
      "볕": 7732,
      "볜": 7733,
      "보": 7734,
      "복": 7735,
      "볶": 7736,
      "본": 7737,
      "봄": 7738,
      "봇": 7739,
      "봉": 7740,
      "부": 7741,
      "북": 7742,
      "분": 7743,
      "불": 7744,
      "붉": 7745,
      "붙": 7746,
      "뷰": 7747,
      "브": 7748,
      "븐": 7749,
      "블": 7750,
      "비": 7751,
      "빈": 7752,
      "빌": 7753,
      "빛": 7754,
      "빠": 7755,
      "빤": 7756,
      "빨": 7757,
      "빵": 7758,
      "뻐": 7759,
      "뿌": 7760,
      "쁘": 7761,
      "쁩": 7762,
      "사": 7763,
      "산": 7764,
      "살": 7765,
      "삼": 7766,
      "상": 7767,
      "새": 7768,
      "색": 7769,
      "생": 7770,
      "샤": 7771,
      "서": 7772,
      "석": 7773,
      "선": 7774,
      "설": 7775,
      "섬": 7776,
      "섯": 7777,
      "성": 7778,
      "세": 7779,
      "센": 7780,
      "셀": 7781,
      "셈": 7782,
      "셉": 7783,
      "셋": 7784,
      "셔": 7785,
      "소": 7786,
      "속": 7787,
      "손": 7788,
      "송": 7789,
      "솥": 7790,
      "쇠": 7791,
      "쇼": 7792,
      "수": 7793,
      "숙": 7794,
      "순": 7795,
      "술": 7796,
      "쉐": 7797,
      "쉰": 7798,
      "쉼": 7799,
      "쉽": 7800,
      "슈": 7801,
      "스": 7802,
      "슬": 7803,
      "습": 7804,
      "승": 7805,
      "시": 7806,
      "식": 7807,
      "신": 7808,
      "실": 7809,
      "심": 7810,
      "십": 7811,
      "싱": 7812,
      "싶": 7813,
      "싸": 7814,
      "쌀": 7815,
      "쌍": 7816,
      "쏘": 7817,
      "쑤": 7818,
      "씀": 7819,
      "씨": 7820,
      "아": 7821,
      "악": 7822,
      "안": 7823,
      "앉": 7824,
      "않": 7825,
      "알": 7826,
      "암": 7827,
      "압": 7828,
      "앗": 7829,
      "았": 7830,
      "앙": 7831,
      "앞": 7832,
      "애": 7833,
      "앤": 7834,
      "야": 7835,
      "양": 7836,
      "얘": 7837,
      "어": 7838,
      "억": 7839,
      "언": 7840,
      "엄": 7841,
      "없": 7842,
      "엇": 7843,
      "었": 7844,
      "에": 7845,
      "엔": 7846,
      "엠": 7847,
      "여": 7848,
      "역": 7849,
      "연": 7850,
      "열": 7851,
      "엽": 7852,
      "엿": 7853,
      "였": 7854,
      "영": 7855,
      "예": 7856,
      "옌": 7857,
      "오": 7858,
      "옥": 7859,
      "온": 7860,
      "올": 7861,
      "옹": 7862,
      "와": 7863,
      "완": 7864,
      "왔": 7865,
      "왕": 7866,
      "왜": 7867,
      "외": 7868,
      "요": 7869,
      "욕": 7870,
      "용": 7871,
      "우": 7872,
      "욱": 7873,
      "운": 7874,
      "울": 7875,
      "웅": 7876,
      "워": 7877,
      "원": 7878,
      "월": 7879,
      "웨": 7880,
      "위": 7881,
      "유": 7882,
      "육": 7883,
      "윤": 7884,
      "율": 7885,
      "윷": 7886,
      "으": 7887,
      "은": 7888,
      "을": 7889,
      "음": 7890,
      "읍": 7891,
      "응": 7892,
      "의": 7893,
      "이": 7894,
      "익": 7895,
      "인": 7896,
      "일": 7897,
      "임": 7898,
      "입": 7899,
      "있": 7900,
      "잉": 7901,
      "잎": 7902,
      "자": 7903,
      "작": 7904,
      "잔": 7905,
      "잘": 7906,
      "잡": 7907,
      "장": 7908,
      "재": 7909,
      "쟁": 7910,
      "저": 7911,
      "적": 7912,
      "전": 7913,
      "절": 7914,
      "점": 7915,
      "접": 7916,
      "젓": 7917,
      "정": 7918,
      "제": 7919,
      "젝": 7920,
      "젤": 7921,
      "조": 7922,
      "족": 7923,
      "존": 7924,
      "종": 7925,
      "좋": 7926,
      "좌": 7927,
      "주": 7928,
      "죽": 7929,
      "준": 7930,
      "줄": 7931,
      "중": 7932,
      "쥬": 7933,
      "즈": 7934,
      "즘": 7935,
      "지": 7936,
      "직": 7937,
      "진": 7938,
      "질": 7939,
      "짐": 7940,
      "집": 7941,
      "짓": 7942,
      "째": 7943,
      "쪽": 7944,
      "찌": 7945,
      "찐": 7946,
      "차": 7947,
      "착": 7948,
      "찬": 7949,
      "찰": 7950,
      "참": 7951,
      "창": 7952,
      "채": 7953,
      "책": 7954,
      "챙": 7955,
      "처": 7956,
      "척": 7957,
      "천": 7958,
      "철": 7959,
      "첨": 7960,
      "첩": 7961,
      "첫": 7962,
      "청": 7963,
      "체": 7964,
      "초": 7965,
      "촌": 7966,
      "총": 7967,
      "최": 7968,
      "추": 7969,
      "축": 7970,
      "춘": 7971,
      "출": 7972,
      "춧": 7973,
      "충": 7974,
      "취": 7975,
      "층": 7976,
      "치": 7977,
      "칙": 7978,
      "친": 7979,
      "칠": 7980,
      "침": 7981,
      "카": 7982,
      "캐": 7983,
      "캔": 7984,
      "컴": 7985,
      "컵": 7986,
      "케": 7987,
      "켈": 7988,
      "켓": 7989,
      "코": 7990,
      "콜": 7991,
      "쾌": 7992,
      "쿄": 7993,
      "쿠": 7994,
      "큐": 7995,
      "크": 7996,
      "큰": 7997,
      "큼": 7998,
      "키": 7999,
      "킨": 8000,
      "타": 8001,
      "탄": 8002,
      "탈": 8003,
      "탑": 8004,
      "탕": 8005,
      "태": 8006,
      "택": 8007,
      "터": 8008,
      "테": 8009,
      "텔": 8010,
      "토": 8011,
      "톡": 8012,
      "톤": 8013,
      "통": 8014,
      "투": 8015,
      "트": 8016,
      "특": 8017,
      "틀": 8018,
      "티": 8019,
      "팅": 8020,
      "파": 8021,
      "판": 8022,
      "팔": 8023,
      "팝": 8024,
      "팥": 8025,
      "패": 8026,
      "퍼": 8027,
      "페": 8028,
      "편": 8029,
      "평": 8030,
      "폐": 8031,
      "포": 8032,
      "표": 8033,
      "풍": 8034,
      "프": 8035,
      "플": 8036,
      "피": 8037,
      "픽": 8038,
      "필": 8039,
      "하": 8040,
      "학": 8041,
      "한": 8042,
      "할": 8043,
      "함": 8044,
      "합": 8045,
      "항": 8046,
      "해": 8047,
      "햄": 8048,
      "햇": 8049,
      "했": 8050,
      "행": 8051,
      "향": 8052,
      "허": 8053,
      "헌": 8054,
      "험": 8055,
      "헝": 8056,
      "헤": 8057,
      "혁": 8058,
      "현": 8059,
      "협": 8060,
      "형": 8061,
      "혜": 8062,
      "호": 8063,
      "혹": 8064,
      "혼": 8065,
      "홀": 8066,
      "홍": 8067,
      "화": 8068,
      "환": 8069,
      "황": 8070,
      "회": 8071,
      "횡": 8072,
      "효": 8073,
      "후": 8074,
      "휩": 8075,
      "흑": 8076,
      "흥": 8077,
      "희": 8078,
      "흰": 8079,
      "힘": 8080,
      "": 8081,
      "": 8082,
      "": 8083,
      "": 8084,
      "": 8085,
      "": 8086,
      "": 8087,
      "": 8088,
      "": 8089,
      "": 8090,
      "": 8091,
      "": 8092,
      "": 8093,
      "": 8094,
      "": 8095,
      "": 8096,
      "": 8097,
      "": 8098,
      "": 8099,
      "": 8100,
      "": 8101,
      "": 8102,
      "": 8103,
      "": 8104,
      "": 8105,
      "": 8106,
      "": 8107,
      "": 8108,
      "": 8109,
      "": 8110,
      "": 8111,
      "": 8112,
      "": 8113,
      "": 8114,
      "": 8115,
      "": 8116,
      "": 8117,
      "": 8118,
      "": 8119,
      "": 8120,
      "": 8121,
      "": 8122,
      "": 8123,
      "": 8124,
      "": 8125,
      "": 8126,
      "": 8127,
      "": 8128,
      "": 8129,
      "": 8130,
      "": 8131,
      "": 8132,
      "": 8133,
      "": 8134,
      "": 8135,
      "": 8136,
      "": 8137,
      "": 8138,
      "": 8139,
      "": 8140,
      "": 8141,
      "": 8142,
      "": 8143,
      "": 8144,
      "": 8145,
      "": 8146,
      "": 8147,
      "": 8148,
      "": 8149,
      "": 8150,
      "": 8151,
      "": 8152,
      "": 8153,
      "": 8154,
      "": 8155,
      "": 8156,
      "": 8157,
      "": 8158,
      "": 8159,
      "": 8160,
      "": 8161,
      "": 8162,
      "": 8163,
      "": 8164,
      "": 8165,
      "": 8166,
      "": 8167,
      "": 8168,
      "": 8169,
      "": 8170,
      "": 8171,
      "": 8172,
      "": 8173,
      "": 8174,
      "": 8175,
      "": 8176,
      "": 8177,
      "": 8178,
      "不": 8179,
      "易": 8180,
      "李": 8181,
      "神": 8182,
      "ﬀ": 8183,
      "ﬁ": 8184,
      "ﬂ": 8185,
      "ﬃ": 8186,
      "ﬄ": 8187,
      "ﬆ": 8188,
      "אַ": 8189,
      "אָ": 8190,
      "בּ": 8191,
      "ﭘ": 8192,
      "ﭼ": 8193,
      "ﮫ": 8194,
      "ﯩ": 8195,
      "ﯿ": 8196,
      "﷓": 8197,
      "ﷺ": 8198,
      "ﷻ": 8199,
      "︎": 8200,
      "️": 8201,
      "︠": 8202,
      "︡": 8203,
      "ﺁ": 8204,
      "ﺍ": 8205,
      "ﺎ": 8206,
      "ﺏ": 8207,
      "ﺑ": 8208,
      "ﺒ": 8209,
      "ﺓ": 8210,
      "ﺔ": 8211,
      "ﺕ": 8212,
      "ﺖ": 8213,
      "ﺘ": 8214,
      "ﺟ": 8215,
      "ﺠ": 8216,
      "ﺡ": 8217,
      "ﺢ": 8218,
      "ﺣ": 8219,
      "ﺤ": 8220,
      "ﺧ": 8221,
      "ﺨ": 8222,
      "ﺩ": 8223,
      "ﺪ": 8224,
      "ﺫ": 8225,
      "ﺭ": 8226,
      "ﺮ": 8227,
      "ﺯ": 8228,
      "ﺰ": 8229,
      "ﺱ": 8230,
      "ﺳ": 8231,
      "ﺴ": 8232,
      "ﺵ": 8233,
      "ﺷ": 8234,
      "ﺸ": 8235,
      "ﺻ": 8236,
      "ﺼ": 8237,
      "ﺿ": 8238,
      "ﻃ": 8239,
      "ﻄ": 8240,
      "ﻇ": 8241,
      "ﻋ": 8242,
      "ﻏ": 8243,
      "ﻐ": 8244,
      "ﻑ": 8245,
      "ﻒ": 8246,
      "ﻓ": 8247,
      "ﻔ": 8248,
      "ﻕ": 8249,
      "ﻗ": 8250,
      "ﻘ": 8251,
      "ﻛ": 8252,
      "ﻜ": 8253,
      "ﻝ": 8254,
      "ﻞ": 8255,
      "ﻟ": 8256,
      "ﻠ": 8257,
      "ﻡ": 8258,
      "ﻢ": 8259,
      "ﻣ": 8260,
      "ﻤ": 8261,
      "ﻥ": 8262,
      "ﻦ": 8263,
      "ﻧ": 8264,
      "ﻨ": 8265,
      "ﻩ": 8266,
      "ﻪ": 8267,
      "ﻫ": 8268,
      "ﻬ": 8269,
      "ﻭ": 8270,
      "ﻮ": 8271,
      "ﻱ": 8272,
      "ﻲ": 8273,
      "ﻳ": 8274,
      "ﻴ": 8275,
      "ﻻ": 8276,
      "ﻼ": 8277,
      "﻿": 8278,
      "！": 8279,
      "＃": 8280,
      "％": 8281,
      "＆": 8282,
      "＇": 8283,
      "（": 8284,
      "）": 8285,
      "＊": 8286,
      "＋": 8287,
      "，": 8288,
      "－": 8289,
      "．": 8290,
      "／": 8291,
      "０": 8292,
      "１": 8293,
      "２": 8294,
      "３": 8295,
      "４": 8296,
      "５": 8297,
      "６": 8298,
      "７": 8299,
      "８": 8300,
      "９": 8301,
      "：": 8302,
      "；": 8303,
      "＜": 8304,
      "＝": 8305,
      "＞": 8306,
      "？": 8307,
      "＠": 8308,
      "Ａ": 8309,
      "Ｂ": 8310,
      "Ｃ": 8311,
      "Ｄ": 8312,
      "Ｅ": 8313,
      "Ｆ": 8314,
      "Ｇ": 8315,
      "Ｈ": 8316,
      "Ｉ": 8317,
      "Ｊ": 8318,
      "Ｋ": 8319,
      "Ｌ": 8320,
      "Ｍ": 8321,
      "Ｎ": 8322,
      "Ｏ": 8323,
      "Ｐ": 8324,
      "Ｒ": 8325,
      "Ｓ": 8326,
      "Ｔ": 8327,
      "Ｕ": 8328,
      "Ｖ": 8329,
      "Ｘ": 8330,
      "Ｚ": 8331,
      "［": 8332,
      "］": 8333,
      "＾": 8334,
      "＿": 8335,
      "｀": 8336,
      "ａ": 8337,
      "ｂ": 8338,
      "ｃ": 8339,
      "ｄ": 8340,
      "ｅ": 8341,
      "ｆ": 8342,
      "ｇ": 8343,
      "ｈ": 8344,
      "ｉ": 8345,
      "ｊ": 8346,
      "ｋ": 8347,
      "ｌ": 8348,
      "ｍ": 8349,
      "ｎ": 8350,
      "ｏ": 8351,
      "ｐ": 8352,
      "ｒ": 8353,
      "ｓ": 8354,
      "ｔ": 8355,
      "ｕ": 8356,
      "ｖ": 8357,
      "ｘ": 8358,
      "ｚ": 8359,
      "｜": 8360,
      "～": 8361,
      "･": 8362,
      "ｨ": 8363,
      "ｩ": 8364,
      "ｪ": 8365,
      "ｭ": 8366,
      "ｮ": 8367,
      "ｯ": 8368,
      "ｰ": 8369,
      "ｲ": 8370,
      "ｳ": 8371,
      "ｴ": 8372,
      "ｵ": 8373,
      "ｶ": 8374,
      "ｸ": 8375,
      "ｹ": 8376,
      "ｺ": 8377,
      "ｼ": 8378,
      "ｽ": 8379,
      "ｿ": 8380,
      "ﾀ": 8381,
      "ﾁ": 8382,
      "ﾄ": 8383,
      "ﾆ": 8384,
      "ﾉ": 8385,
      "ﾊ": 8386,
      "ﾌ": 8387,
      "ﾍ": 8388,
      "ﾗ": 8389,
      "ﾛ": 8390,
      "ﾜ": 8391,
      "ﾝ": 8392,
      "ﾞ": 8393,
      "ﾟ": 8394,
      "￡": 8395,
      "￥": 8396,
      "￼": 8397,
      "�": 8398,
      "𐀄": 8399,
      "𐀈": 8400,
      "𐀗": 8401,
      "𐀙": 8402,
      "𐌄": 8403,
      "𐌑": 8404,
      "𐌓": 8405,
      "𐌔": 8406,
      "𐌖": 8407,
      "𐌘": 8408,
      "𐎎": 8409,
      "𐎕": 8410,
      "𐎗": 8411,
      "𐎠": 8412,
      "𐎡": 8413,
      "𐎯": 8414,
      "𐎱": 8415,
      "𐎼": 8416,
      "𐎿": 8417,
      "𐏃": 8418,
      "𐐔": 8419,
      "𐐨": 8420,
      "𐐯": 8421,
      "𐐲": 8422,
      "𐐻": 8423,
      "𐑅": 8424,
      "𐑆": 8425,
      "𐑉": 8426,
      "𐑐": 8427,
      "𐑑": 8428,
      "𐑒": 8429,
      "𐑓": 8430,
      "𐑔": 8431,
      "𐑕": 8432,
      "𐑖": 8433,
      "𐑗": 8434,
      "𐑘": 8435,
      "𐑙": 8436,
      "𐑚": 8437,
      "𐑛": 8438,
      "𐑜": 8439,
      "𐑝": 8440,
      "𐑞": 8441,
      "𐑟": 8442,
      "𐑠": 8443,
      "𐑡": 8444,
      "𐑢": 8445,
      "𐑣": 8446,
      "𐑤": 8447,
      "𐑥": 8448,
      "𐑦": 8449,
      "𐑧": 8450,
      "𐑨": 8451,
      "𐑩": 8452,
      "𐑪": 8453,
      "𐑫": 8454,
      "𐑭": 8455,
      "𐑮": 8456,
      "𐑯": 8457,
      "𐑰": 8458,
      "𐑱": 8459,
      "𐑲": 8460,
      "𐑳": 8461,
      "𐑵": 8462,
      "𐑷": 8463,
      "𐑻": 8464,
      "𐑾": 8465,
      "𐤀": 8466,
      "𐤁": 8467,
      "𐤂": 8468,
      "𐤃": 8469,
      "𐤉": 8470,
      "𐤊": 8471,
      "𐤌": 8472,
      "𐤍": 8473,
      "𐤏": 8474,
      "𐤓": 8475,
      "𐤔": 8476,
      "𐤕": 8477,
      "𐩡": 8478,
      "𐩱": 8479,
      "𐬀": 8480,
      "𐬎": 8481,
      "𐬙": 8482,
      "𐬚": 8483,
      "𐬭": 8484,
      "𐬰": 8485,
      "𐬱": 8486,
      "𐰺": 8487,
      "𐱃": 8488,
      "𒀭": 8489,
      "𒀸": 8490,
      "𒄠": 8491,
      "𒄷": 8492,
      "𒊑": 8493,
      "𒋛": 8494,
      "𒋩": 8495,
      "𒌨": 8496,
      "𝅘": 8497,
      "𝅥": 8498,
      "𝅰": 8499,
      "𝒃": 8500,
      "𝔗": 8501,
      "𝖇": 8502,
      "🇦": 8503,
      "🇧": 8504,
      "🇨": 8505,
      "🇩": 8506,
      "🇪": 8507,
      "🇫": 8508,
      "🇬": 8509,
      "🇭": 8510,
      "🇮": 8511,
      "🇯": 8512,
      "🇰": 8513,
      "🇳": 8514,
      "🇵": 8515,
      "🇶": 8516,
      "🇷": 8517,
      "🇸": 8518,
      "🇹": 8519,
      "🇺": 8520,
      "🌄": 8521,
      "🌈": 8522,
      "🌎": 8523,
      "🌐": 8524,
      "🌙": 8525,
      "🌝": 8526,
      "🌞": 8527,
      "🌟": 8528,
      "🌧": 8529,
      "🌪": 8530,
      "🌱": 8531,
      "🌲": 8532,
      "🌳": 8533,
      "🌹": 8534,
      "🌻": 8535,
      "🌾": 8536,
      "🌿": 8537,
      "🍀": 8538,
      "🍁": 8539,
      "🍂": 8540,
      "🍄": 8541,
      "🍴": 8542,
      "🎀": 8543,
      "🎁": 8544,
      "🎄": 8545,
      "🎅": 8546,
      "🎆": 8547,
      "🎈": 8548,
      "🎙": 8549,
      "🎤": 8550,
      "🎥": 8551,
      "🎧": 8552,
      "🎨": 8553,
      "🎭": 8554,
      "🎮": 8555,
      "🎴": 8556,
      "🎵": 8557,
      "🎶": 8558,
      "🏠": 8559,
      "🏨": 8560,
      "🏳": 8561,
      "🏻": 8562,
      "🐊": 8563,
      "🐒": 8564,
      "🐚": 8565,
      "🐛": 8566,
      "🐞": 8567,
      "🐡": 8568,
      "🐦": 8569,
      "🐧": 8570,
      "🐱": 8571,
      "🐶": 8572,
      "🐸": 8573,
      "🐺": 8574,
      "🐻": 8575,
      "👀": 8576,
      "👉": 8577,
      "👋": 8578,
      "👌": 8579,
      "👍": 8580,
      "👑": 8581,
      "👖": 8582,
      "👗": 8583,
      "👚": 8584,
      "👥": 8585,
      "👦": 8586,
      "👧": 8587,
      "👩": 8588,
      "👪": 8589,
      "👬": 8590,
      "👭": 8591,
      "👱": 8592,
      "👴": 8593,
      "💀": 8594,
      "💌": 8595,
      "💐": 8596,
      "💕": 8597,
      "💖": 8598,
      "💗": 8599,
      "💚": 8600,
      "💞": 8601,
      "💡": 8602,
      "💩": 8603,
      "💬": 8604,
      "💳": 8605,
      "💻": 8606,
      "📍": 8607,
      "📓": 8608,
      "📖": 8609,
      "📚": 8610,
      "📝": 8611,
      "📢": 8612,
      "📬": 8613,
      "📷": 8614,
      "📸": 8615,
      "🔗": 8616,
      "🔤": 8617,
      "🔥": 8618,
      "🔭": 8619,
      "🔴": 8620,
      "🔻": 8621,
      "🕊": 8622,
      "🕗": 8623,
      "🕹": 8624,
      "🖊": 8625,
      "🖖": 8626,
      "🗒": 8627,
      "🗣": 8628,
      "🗺": 8629,
      "😀": 8630,
      "😁": 8631,
      "😂": 8632,
      "😃": 8633,
      "😄": 8634,
      "😅": 8635,
      "😆": 8636,
      "😈": 8637,
      "😉": 8638,
      "😊": 8639,
      "😋": 8640,
      "😌": 8641,
      "😍": 8642,
      "😎": 8643,
      "😏": 8644,
      "😐": 8645,
      "😒": 8646,
      "😔": 8647,
      "😕": 8648,
      "😖": 8649,
      "😚": 8650,
      "😛": 8651,
      "😜": 8652,
      "😝": 8653,
      "😡": 8654,
      "😢": 8655,
      "😥": 8656,
      "😦": 8657,
      "😭": 8658,
      "😮": 8659,
      "😯": 8660,
      "😱": 8661,
      "😲": 8662,
      "😳": 8663,
      "😴": 8664,
      "😷": 8665,
      "😻": 8666,
      "🙁": 8667,
      "🙂": 8668,
      "🙃": 8669,
      "🙄": 8670,
      "🙇": 8671,
      "🙋": 8672,
      "🙏": 8673,
      "🚨": 8674,
      "🚩": 8675,
      "🚲": 8676,
      "🛌": 8677,
      "🤔": 8678,
      "🤗": 8679,
      "🤣": 8680,
      "🥒": 8681,
      "🥖": 8682,
      "🦄": 8683,
      "🦆": 8684,
      "🦋": 8685,
      "𨳊": 8686,
      "la": 8687,
      "on": 8688,
      "ta": 8689,
      "en": 8690,
      "oj": 8691,
      "an": 8692,
      "de": 8693,
      "is": 8694,
      "aj": 8695,
      "er": 8696,
      "li": 8697,
      "es": 8698,
      "or": 8699,
      "ti": 8700,
      "ar": 8701,
      "in": 8702,
      "as": 8703,
      "al": 8704,
      "to": 8705,
      "kaj": 8706,
      "pr": 8707,
      "tr": 8708,
      "un": 8709,
      "te": 8710,
      "ki": 8711,
      "el": 8712,
      "om": 8713,
      "vi": 8714,
      "ci": 8715,
      "ur": 8716,
      "tas": 8717,
      "di": 8718,
      "am": 8719,
      "ek": 8720,
      "po": 8721,
      "per": 8722,
      "do": 8723,
      "re": 8724,
      "mi": 8725,
      "aŭ": 8726,
      "lo": 8727,
      "toj": 8728,
      "kon": 8729,
      "ri": 8730,
      "estas": 8731,
      "si": 8732,
      "ko": 8733,
      "le": 8734,
      "ne": 8735,
      "tis": 8736,
      "ter": 8737,
      "da": 8738,
      "io": 8739,
      "ka": 8740,
      "por": 8741,
      "La": 8742,
      "ro": 8743,
      "ra": 8744,
      "ojn": 8745,
      "du": 8746,
      "tu": 8747,
      "taj": 8748,
      "pri": 8749,
      "ke": 8750,
      "ul": 8751,
      "vo": 8752,
      "pro": 8753,
      "mo": 8754,
      "me": 8755,
      "ni": 8756,
      "mal": 8757,
      "gi": 8758,
      "ĉi": 8759,
      "se": 8760,
      "uj": 8761,
      "lan": 8762,
      "kun": 8763,
      "lin": 8764,
      "vas": 8765,
      "va": 8766,
      "estis": 8767,
      "su": 8768,
      "pa": 8769,
      "co": 8770,
      "par": 8771,
      "lu": 8772,
      "dis": 8773,
      "fi": 8774,
      "zi": 8775,
      "peran": 8776,
      "kom": 8777,
      "pe": 8778,
      "ma": 8779,
      "ton": 8780,
      "for": 8781,
      "gr": 8782,
      "ver": 8783,
      "don": 8784,
      "Es": 8785,
      "ajn": 8786,
      "pli": 8787,
      "man": 8788,
      "us": 8789,
      "mon": 8790,
      "tan": 8791,
      "tro": 8792,
      "unu": 8793,
      "go": 8794,
      "19": 8795,
      "ank": 8796,
      "ali": 8797,
      "no": 8798,
      "ĝis": 8799,
      "las": 8800,
      "ha": 8801,
      "tra": 8802,
      "Vi": 8803,
      "20": 8804,
      "Esperan": 8805,
      "ven": 8806,
      "ĝi": 8807,
      "ĉe": 8808,
      "eb": 8809,
      "ĝo": 8810,
      "ili": 8811,
      "pre": 8812,
      "kiel": 8813,
      "kiu": 8814,
      "na": 8815,
      "ce": 8816,
      "ten": 8817,
      "so": 8818,
      "ak": 8819,
      "tri": 8820,
      "inter": 8821,
      "sen": 8822,
      "pi": 8823,
      "jo": 8824,
      "ga": 8825,
      "ling": 8826,
      "lon": 8827,
      "men": 8828,
      "tiu": 8829,
      "ve": 8830,
      "En": 8831,
      "tur": 8832,
      "anta": 8833,
      "Mi": 8834,
      "oni": 8835,
      "ple": 8836,
      "bo": 8837,
      "Esperanto": 8838,
      "aro": 8839,
      "ris": 8840,
      "os": 8841,
      "tor": 8842,
      "far": 8843,
      "cio": 8844,
      "sed": 8845,
      "vis": 8846,
      "gis": 8847,
      "..": 8848,
      "fer": 8849,
      "res": 8850,
      "loj": 8851,
      "sur": 8852,
      "ran": 8853,
      "tem": 8854,
      "str": 8855,
      "pos": 8856,
      "bon": 8857,
      "ba": 8858,
      "doj": 8859,
      "Li": 8860,
      "pon": 8861,
      "ku": 8862,
      "bi": 8863,
      "ol": 8864,
      "tio": 8865,
      "zo": 8866,
      "eni": 8867,
      "moj": 8868,
      "ru": 8869,
      "cia": 8870,
      "voj": 8871,
      "kiuj": 8872,
      "pl": 8873,
      "min": 8874,
      "nom": 8875,
      "dan": 8876,
      "ze": 8877,
      "ge": 8878,
      "mul": 8879,
      "jar": 8880,
      "den": 8881,
      "tojn": 8882,
      "sta": 8883,
      "fa": 8884,
      "pu": 8885,
      "gran": 8886,
      "ch": 8887,
      "ono": 8888,
      "Se": 8889,
      "povas": 8890,
      "ino": 8891,
      "ankaŭ": 8892,
      "ori": 8893,
      "ŝi": 8894,
      "bro": 8895,
      "laj": 8896,
      "gas": 8897,
      "za": 8898,
      "gan": 8899,
      "gra": 8900,
      "hom": 8901,
      "plej": 8902,
      "pen": 8903,
      "In": 8904,
      "ber": 8905,
      "sa": 8906,
      "kri": 8907,
      "Ti": 8908,
      "laŭ": 8909,
      "be": 8910,
      "dio": 8911,
      "tre": 8912,
      "Viki": 8913,
      "isto": 8914,
      "nur": 8915,
      "ĵo": 8916,
      "201": 8917,
      "oro": 8918,
      "mem": 8919,
      "ĝas": 8920,
      "ita": 8921,
      "tiko": 8922,
      "kan": 8923,
      "ser": 8924,
      "cen": 8925,
      "ks": 8926,
      "pren": 8927,
      "Ki": 8928,
      ").": 8929,
      "tin": 8930,
      "Kom": 8931,
      "ca": 8932,
      "vin": 8933,
      "eks": 8934,
      "das": 8935,
      "zis": 8936,
      "je": 8937,
      "ero": 8938,
      "gu": 8939,
      "dum": 8940,
      "koj": 8941,
      "Re": 8942,
      "esti": 8943,
      "fin": 8944,
      "sub": 8945,
      "aliaj": 8946,
      "lab": 8947,
      "sek": 8948,
      "gar": 8949,
      "kul": 8950,
      "pan": 8951,
      "ler": 8952,
      "daj": 8953,
      "havas": 8954,
      "van": 8955,
      "nu": 8956,
      "stru": 8957,
      "),": 8958,
      "vor": 8959,
      "An": 8960,
      "bu": 8961,
      "ras": 8962,
      "sci": 8963,
      "of": 8964,
      "alo": 8965,
      "ĝin": 8966,
      "mar": 8967,
      "sam": 8968,
      "antaŭ": 8969,
      "ia": 8970,
      "200": 8971,
      "kaŭ": 8972,
      "oka": 8973,
      "var": 8974,
      "Ne": 8975,
      "kur": 8976,
      "Kaj": 8977,
      "sin": 8978,
      "tita": 8979,
      "mu": 8980,
      "mor": 8981,
      "kto": 8982,
      "con": 8983,
      "18": 8984,
      "lando": 8985,
      "ejo": 8986,
      "son": 8987,
      "he": 8988,
      "ata": 8989,
      "br": 8990,
      "bli": 8991,
      "ado": 8992,
      "foj": 8993,
      "nun": 8994,
      "00": 8995,
      "esperan": 8996,
      "sia": 8997,
      "kla": 8998,
      "kis": 8999,
      "kre": 9000,
      "post": 9001,
      "rom": 9002,
      "elo": 9003,
      "kiam": 9004,
      "Ka": 9005,
      "ĵoj": 9006,
      "ĉiuj": 9007,
      "...": 9008,
      "rek": 9009,
      "Ĉi": 9010,
      "pedio": 9011,
      "eble": 9012,
      "ang": 9013,
      "uz": 9014,
      "ces": 9015,
      "pek": 9016,
      "kondi": 9017,
      "fo": 9018,
      "lingvo": 9019,
      "ĝoj": 9020,
      "artiko": 9021,
      "teg": 9022,
      "cer": 9023,
      "komen": 9024,
      "esto": 9025,
      "pas": 9026,
      "kor": 9027,
      "tiuj": 9028,
      "amen": 9029,
      "Ni": 9030,
      "Kon": 9031,
      "jam": 9032,
      "tion": 9033,
      "ano": 9034,
      "tajn": 9035,
      "gen": 9036,
      "mili": 9037,
      "Al": 9038,
      "fe": 9039,
      "ĉar": 9040,
      "gita": 9041,
      "paro": 9042,
      "labor": 9043,
      "erman": 9044,
      "tran": 9045,
      "zon": 9046,
      "fon": 9047,
      "mia": 9048,
      "vaj": 9049,
      "um": 9050,
      "dia": 9051,
      "his": 9052,
      "spe": 9053,
      "parto": 9054,
      "kel": 9055,
      "ksi": 9056,
      "Komun": 9057,
      "mes": 9058,
      "urbo": 9059,
      "Sed": 9060,
      "liber": 9061,
      "ja": 9062,
      "ale": 9063,
      "neni": 9064,
      "sis": 9065,
      "tiun": 9066,
      "lia": 9067,
      "traŭ": 9068,
      "ad": 9069,
      "fari": 9070,
      "ho": 9071,
      "kio": 9072,
      "il": 9073,
      "gx": 9074,
      "ele": 9075,
      "kar": 9076,
      "uloj": 9077,
      "tie": 9078,
      "granda": 9079,
      "foje": 9080,
      "uni": 9081,
      "ble": 9082,
      "ron": 9083,
      "anoj": 9084,
      "kontraŭ": 9085,
      "goj": 9086,
      "paĝo": 9087,
      "Ĝi": 9088,
      "hel": 9089,
      "plu": 9090,
      "kci": 9091,
      "hi": 9092,
      "tiel": 9093,
      "fun": 9094,
      "maj": 9095,
      "mis": 9096,
      "jaroj": 9097,
      "von": 9098,
      "sian": 9099,
      "teks": 9100,
      "Mar": 9101,
      "daŭ": 9102,
      "zen": 9103,
      "dak": 9104,
      "Pa": 9105,
      "kas": 9106,
      "turo": 9107,
      "skri": 9108,
      "rin": 9109,
      "10": 9110,
      "El": 9111,
      "plen": 9112,
      "ju": 9113,
      "eĉ": 9114,
      "coj": 9115,
      "diris": 9116,
      "lis": 9117,
      "lio": 9118,
      "mas": 9119,
      "teco": 9120,
      "gres": 9121,
      "cis": 9122,
      "im": 9123,
      "ren": 9124,
      "taŭ": 9125,
      "Inter": 9126,
      "publi": 9127,
      "Vikipedio": 9128,
      "flu": 9129,
      "antoj": 9130,
      "taro": 9131,
      "via": 9132,
      "sti": 9133,
      "unua": 9134,
      "cx": 9135,
      "sig": 9136,
      "ed": 9137,
      "kondiĉ": 9138,
      "homoj": 9139,
      "redak": 9140,
      "volu": 9141,
      "gon": 9142,
      "raj": 9143,
      "dek": 9144,
      "ŝan": 9145,
      "ina": 9146,
      "ux": 9147,
      "De": 9148,
      "15": 9149,
      "ĝa": 9150,
      "kie": 9151,
      "duk": 9152,
      "apar": 9153,
      "lingvoj": 9154,
      "datu": 9155,
      "ami": 9156,
      "kelkaj": 9157,
      "nova": 9158,
      "multaj": 9159,
      "ab": 9160,
      "Ĉu": 9161,
      "jun": 9162,
      "poli": 9163,
      "cioj": 9164,
      "prezen": 9165,
      "elek": 9166,
      "Ma": 9167,
      "gio": 9168,
      "nia": 9169,
      "ante": 9170,
      "devas": 9171,
      "ŭro": 9172,
      "klo": 9173,
      "estu": 9174,
      "kol": 9175,
      "amo": 9176,
      "trovi": 9177,
      "fra": 9178,
      "zem": 9179,
      "17": 9180,
      "kiun": 9181,
      "versi": 9182,
      "aper": 9183,
      "permes": 9184,
      "ion": 9185,
      "ĉu": 9186,
      "cep": 9187,
      "der": 9188,
      "nas": 9189,
      "tribu": 9190,
      "12": 9191,
      "poj": 9192,
      "ing": 9193,
      "nacia": 9194,
      "ĉiu": 9195,
      "ligi": 9196,
      "dom": 9197,
      "ara": 9198,
      "toro": 9199,
      "Por": 9200,
      "tute": 9201,
      "Pro": 9202,
      "mala": 9203,
      "era": 9204,
      "ama": 9205,
      "organ": 9206,
      "iu": 9207,
      "infor": 9208,
      "pla": 9209,
      "Ar": 9210,
      "orio": 9211,
      "roj": 9212,
      "aldon": 9213,
      "datumoj": 9214,
      "tado": 9215,
      "bone": 9216,
      "komunu": 9217,
      "Kateg": 9218,
      "No": 9219,
      "aĵo": 9220,
      "Pos": 9221,
      "proksi": 9222,
      "ĝon": 9223,
      "vers": 9224,
      "fil": 9225,
      "199": 9226,
      "tempo": 9227,
      "media": 9228,
      "16": 9229,
      "klu": 9230,
      "ekzis": 9231,
      "eblas": 9232,
      "Le": 9233,
      "gru": 9234,
      "iom": 9235,
      "poste": 9236,
      "rea": 9237,
      "Su": 9238,
      "mondo": 9239,
      "din": 9240,
      "Po": 9241,
      "deman": 9242,
      "eri": 9243,
      "jaro": 9244,
      "instru": 9245,
      "rila": 9246,
      "teri": 9247,
      "Mon": 9248,
      "istoj": 9249,
      "multe": 9250,
      "trans": 9251,
      "pres": 9252,
      "lasta": 9253,
      "ilin": 9254,
      "14": 9255,
      "aten": 9256,
      "val": 9257,
      "respon": 9258,
      "tato": 9259,
      "teksto": 9260,
      "faci": 9261,
      "Par": 9262,
      "tero": 9263,
      "kva": 9264,
      "pra": 9265,
      "vu": 9266,
      "stu": 9267,
      "sim": 9268,
      "Fran": 9269,
      "boj": 9270,
      "tradu": 9271,
      "pin": 9272,
      "nor": 9273,
      "konstru": 9274,
      "inf": 9275,
      "estos": 9276,
      "histor": 9277,
      "Komunejo": 9278,
      "bri": 9279,
      "ankor": 9280,
      "13": 9281,
      "havis": 9282,
      "ani": 9283,
      "Vikimedia": 9284,
      "rice": 9285,
      "nek": 9286,
      "suk": 9287,
      "ĝen": 9288,
      "uzi": 9289,
      "tera": 9290,
      "ob": 9291,
      "super": 9292,
      "alia": 9293,
      "Tiu": 9294,
      "tamen": 9295,
      "loĝ": 9296,
      "vus": 9297,
      "ekzem": 9298,
      "eto": 9299,
      "ide": 9300,
      "eo": 9301,
      "Jo": 9302,
      "afer": 9303,
      "laro": 9304,
      "organi": 9305,
      "eco": 9306,
      "venis": 9307,
      "Na": 9308,
      "Ek": 9309,
      "th": 9310,
      "regis": 9311,
      "blo": 9312,
      "ofte": 9313,
      "esperantis": 9314,
      "rkaŭ": 9315,
      "proj": 9316,
      "vos": 9317,
      "sono": 9318,
      "anto": 9319,
      "ĉef": 9320,
      "iĝis": 9321,
      "deta": 9322,
      "Mal": 9323,
      "Vidu": 9324,
      "dojn": 9325,
      "ismo": 9326,
      "projek": 9327,
      "ilo": 9328,
      "\".": 9329,
      "ir": 9330,
      "kov": 9331,
      "troj": 9332,
      "zio": 9333,
      "esper": 9334,
      "sukces": 9335,
      "ere": 9336,
      "kompren": 9337,
      "divers": 9338,
      "rigar": 9339,
      "omen": 9340,
      "naci": 9341,
      "tempe": 9342,
      "ankoraŭ": 9343,
      "german": 9344,
      "signi": 9345,
      "uro": 9346,
      "vado": 9347,
      "fran": 9348,
      "et": 9349,
      "tiam": 9350,
      "\",": 9351,
      "ofi": 9352,
      "igi": 9353,
      "ag": 9354,
      "fak": 9355,
      "ekti": 9356,
      "tek": 9357,
      "vizi": 9358,
      "ĉirkaŭ": 9359,
      "fam": 9360,
      "regi": 9361,
      "Unu": 9362,
      "volas": 9363,
      "akti": 9364,
      "vivo": 9365,
      "produk": 9366,
      "tp": 9367,
      "konsi": 9368,
      "11": 9369,
      "bona": 9370,
      "Ili": 9371,
      "fes": 9372,
      "nomo": 9373,
      "Mul": 9374,
      "kam": 9375,
      "minis": 9376,
      "blas": 9377,
      "broj": 9378,
      "bar": 9379,
      "temo": 9380,
      "em": 9381,
      "Ci": 9382,
      "indi": 9383,
      "Ja": 9384,
      "bla": 9385,
      "respek": 9386,
      "tejo": 9387,
      "Sam": 9388,
      "Ru": 9389,
      "progr": 9390,
      "tuta": 9391,
      "ekz": 9392,
      "komunumo": 9393,
      "okaz": 9394,
      "dor": 9395,
      "fru": 9396,
      "muzi": 9397,
      "flan": 9398,
      "rapi": 9399,
      "Eŭro": 9400,
      "gado": 9401,
      "lojn": 9402,
      "len": 9403,
      "ig": 9404,
      "ekster": 9405,
      "interes": 9406,
      "Do": 9407,
      "joj": 9408,
      "situ": 9409,
      "198": 9410,
      "uti": 9411,
      "mento": 9412,
      "Post": 9413,
      "Dio": 9414,
      "ada": 9415,
      "Uni": 9416,
      "tru": 9417,
      "ona": 9418,
      "artikolon": 9419,
      "danto": 9420,
      "tia": 9421,
      "plur": 9422,
      "ĉa": 9423,
      "ebla": 9424,
      "EA": 9425,
      "apli": 9426,
      "plan": 9427,
      "Tio": 9428,
      "ĉiam": 9429,
      "popo": 9430,
      "libro": 9431,
      "angla": 9432,
      "tika": 9433,
      "siaj": 9434,
      "jarcen": 9435,
      "kvar": 9436,
      "German": 9437,
      "Dum": 9438,
      "So": 9439,
      "person": 9440,
      "ungar": 9441,
      "Ro": 9442,
      "ww": 9443,
      "kion": 9444,
      "preni": 9445,
      "kap": 9446,
      "formoj": 9447,
      "est": 9448,
      "logi": 9449,
      "vidi": 9450,
      "artikolo": 9451,
      "prezi": 9452,
      "kuti": 9453,
      "libera": 9454,
      "fen": 9455,
      "fu": 9456,
      "kra": 9457,
      "dispon": 9458,
      "ora": 9459,
      "ŝa": 9460,
      "gaj": 9461,
      "Aŭ": 9462,
      "spi": 9463,
      "zoj": 9464,
      "mani": 9465,
      "Ba": 9466,
      "ana": 9467,
      "feren": 9468,
      "dezi": 9469,
      "Ĉe": 9470,
      "Ri": 9471,
      "atin": 9472,
      "eldon": 9473,
      "landoj": 9474,
      "deci": 9475,
      "jen": 9476,
      "bezon": 9477,
      "Kiel": 9478,
      "gus": 9479,
      "simi": 9480,
      "tigi": 9481,
      "scias": 9482,
      "greso": 9483,
      "rez": 9484,
      "30": 9485,
      "kres": 9486,
      "kciden": 9487,
      "priva": 9488,
      "stan": 9489,
      "uza": 9490,
      "Oni": 9491,
      "krom": 9492,
      "ĉo": 9493,
      "ekzistas": 9494,
      "kondiĉoj": 9495,
      "okazis": 9496,
      "ĵojn": 9497,
      "aso": 9498,
      "cion": 9499,
      "tino": 9500,
      "kondu": 9501,
      "scien": 9502,
      "mbro": 9503,
      "vila": 9504,
      "liaj": 9505,
      "Di": 9506,
      "rus": 9507,
      "Lu": 9508,
      "orig": 9509,
      "bur": 9510,
      "pozi": 9511,
      "onom": 9512,
      "naski": 9513,
      "Ch": 9514,
      "rakon": 9515,
      "Ho": 9516,
      "Jes": 9517,
      "sep": 9518,
      "mojn": 9519,
      "Si": 9520,
      "ciklo": 9521,
      "Me": 9522,
      "vank": 9523,
      "pun": 9524,
      "lino": 9525,
      "vankam": 9526,
      "direk": 9527,
      "eli": 9528,
      "Du": 9529,
      "ciala": 9530,
      "fare": 9531,
      "Ra": 9532,
      "caj": 9533,
      "Mo": 9534,
      "famili": 9535,
      "bata": 9536,
      "veno": 9537,
      "ulo": 9538,
      "iuj": 9539,
      "ura": 9540,
      "Kategorio": 9541,
      "detaloj": 9542,
      "preci": 9543,
      "and": 9544,
      "adap": 9545,
      "sol": 9546,
      "renkon": 9547,
      "deno": 9548,
      "gh": 9549,
      "faris": 9550,
      "stra": 9551,
      "ŝta": 9552,
      "ck": 9553,
      "Sa": 9554,
      "partopren": 9555,
      "ite": 9556,
      "filo": 9557,
      "25": 9558,
      ".\"": 9559,
      "sufi": 9560,
      "197": 9561,
      "bil": 9562,
      "His": 9563,
      "pis": 9564,
      "neces": 9565,
      "ine": 9566,
      "tura": 9567,
      "Tamen": 9568,
      "socio": 9569,
      "fri": 9570,
      "ĝus": 9571,
      "vidis": 9572,
      "tos": 9573,
      "are": 9574,
      "homo": 9575,
      "diversaj": 9576,
      "kojn": 9577,
      "Usono": 9578,
      "eno": 9579,
      "malpli": 9580,
      "bor": 9581,
      "Ko": 9582,
      "majn": 9583,
      "au": 9584,
      "trikto": 9585,
      "gos": 9586,
      "kura": 9587,
      "milito": 9588,
      "lar": 9589,
      "ekzemple": 9590,
      "mona": 9591,
      "ŝo": 9592,
      "vid": 9593,
      "estro": 9594,
      "ekde": 9595,
      "kos": 9596,
      "Kiam": 9597,
      "igis": 9598,
      "Per": 9599,
      "Jen": 9600,
      "Atribu": 9601,
      "oroj": 9602,
      "eroj": 9603,
      "ĵon": 9604,
      "proble": 9605,
      "ĝe": 9606,
      "kiujn": 9607,
      "kies": 9608,
      "jarcento": 9609,
      "jon": 9610,
      "orien": 9611,
      "194": 9612,
      "Pri": 9613,
      "at": 9614,
      "it": 9615,
      "UEA": 9616,
      "opin": 9617,
      "estus": 9618,
      "ene": 9619,
      "tago": 9620,
      "kado": 9621,
      "aran": 9622,
      "kal": 9623,
      "diaŭ": 9624,
      "povis": 9625,
      "respekto": 9626,
      "196": 9627,
      "funkci": 9628,
      "cel": 9629,
      "ciklopedio": 9630,
      "kapa": 9631,
      "panio": 9632,
      "depen": 9633,
      "dua": 9634,
      "itaj": 9635,
      "Informoj": 9636,
      "--": 9637,
      "ankta": 9638,
      "siajn": 9639,
      "voja": 9640,
      "lerne": 9641,
      "gularo": 9642,
      "hej": 9643,
      "vian": 9644,
      "Ŝi": 9645,
      "tono": 9646,
      "diras": 9647,
      "una": 9648,
      "zor": 9649,
      "lingva": 9650,
      "ujo": 9651,
      "permesilo": 9652,
      "skrib": 9653,
      "san": 9654,
      "akcep": 9655,
      "Estas": 9656,
      "Laŭ": 9657,
      "kondiĉojn": 9658,
      "kisto": 9659,
      "ĝu": 9660,
      "22": 9661,
      "trime": 9662,
      "dita": 9663,
      "titaj": 9664,
      "grandaj": 9665,
      "trimedaj": 9666,
      "Multrimedaj": 9667,
      "nov": 9668,
      "patr": 9669,
      "espri": 9670,
      "povus": 9671,
      "kondiĉe": 9672,
      "dera": 9673,
      "vere": 9674,
      "tras": 9675,
      "inklu": 9676,
      "fas": 9677,
      "fine": 9678,
      "prin": 9679,
      "bra": 9680,
      "esperanto": 9681,
      "bal": 9682,
      "laboro": 9683,
      "loko": 9684,
      "redaktita": 9685,
      "ĝia": 9686,
      "23": 9687,
      "tele": 9688,
      "21": 9689,
      "cas": 9690,
      "adaptita": 9691,
      "kato": 9692,
      "Regularo": 9693,
      "tuj": 9694,
      "enciklopedio": 9695,
      "24": 9696,
      "Pe": 9697,
      "orioj": 9698,
      "Krea": 9699,
      "kita": 9700,
      "soci": 9701,
      "privateco": 9702,
      "hon": 9703,
      "Nor": 9704,
      "parte": 9705,
      "aplike": 9706,
      "Bo": 9707,
      "Komunaĵo": 9708,
      "stitu": 9709,
      "troviĝas": 9710,
      "Kar": 9711,
      "Atribuite": 9712,
      "nin": 9713,
      "aldonaj": 9714,
      "disponeblas": 9715,
      "logio": 9716,
      "hof": 9717,
      "venas": 9718,
      "oku": 9719,
      "same": 9720,
      "lajn": 9721,
      "Samkondiĉe": 9722,
      "lastafoje": 9723,
      "ban": 9724,
      "onoj": 9725,
      "Neadaptita": 9726,
      "Pre": 9727,
      "Ju": 9728,
      "sper": 9729,
      "LA": 9730,
      "aplikeblas": 9731,
      "uzkondiĉojn": 9732,
      "Zamen": 9733,
      "omo": 9734,
      "domo": 9735,
      "ER": 9736,
      "inte": 9737,
      "perio": 9738,
      "mer": 9739,
      "klari": 9740,
      "projektoj": 9741,
      "esta": 9742,
      "Vikidatumoj": 9743,
      ".[": 9744,
      "tenas": 9745,
      "pens": 9746,
      "naj": 9747,
      "ekto": 9748,
      "Joh": 9749,
      "sal": 9750,
      "torio": 9751,
      "donis": 9752,
      "evolu": 9753,
      "vide": 9754,
      "ski": 9755,
      "versa": 9756,
      "grupo": 9757,
      "193": 9758,
      "Citi": 9759,
      "neniam": 9760,
      "ros": 9761,
      "propon": 9762,
      "preskaŭ": 9763,
      "inio": 9764,
      "kvin": 9765,
      "evi": 9766,
      "ES": 9767,
      "tisto": 9768,
      "vojo": 9769,
      "jan": 9770,
      "sama": 9771,
      "ut": 9772,
      "vorto": 9773,
      "vortoj": 9774,
      "trak": 9775,
      "Internacia": 9776,
      "politi": 9777,
      "spek": 9778,
      "000": 9779,
      "facile": 9780,
      "195": 9781,
      "malfer": 9782,
      "esperantistoj": 9783,
      "fir": 9784,
      "rezul": 9785,
      "amas": 9786,
      "amb": 9787,
      "movado": 9788,
      "Ver": 9789,
      "pana": 9790,
      "sistemo": 9791,
      "patro": 9792,
      "fino": 9793,
      "blan": 9794,
      "26": 9795,
      "ht": 9796,
      "Zamenhof": 9797,
      "longe": 9798,
      "Bon": 9799,
      "rita": 9800,
      "kontro": 9801,
      "vidu": 9802,
      "vir": 9803,
      "fio": 9804,
      "stri": 9805,
      "apu": 9806,
      "Am": 9807,
      "mian": 9808,
      "reg": 9809,
      "uzas": 9810,
      "Ber": 9811,
      "vetur": 9812,
      "iris": 9813,
      "vol": 9814,
      "litera": 9815,
      "uo": 9816,
      "can": 9817,
      "sio": 9818,
      "paj": 9819,
      "okul": 9820,
      "espl": 9821,
      "regiono": 9822,
      "aŭto": 9823,
      "fre": 9824,
      "stataŭ": 9825,
      "Germanio": 9826,
      "program": 9827,
      "ste": 9828,
      "Sen": 9829,
      "retejo": 9830,
      "ges": 9831,
      "historio": 9832,
      "Kan": 9833,
      "formo": 9834,
      "TO": 9835,
      "alis": 9836,
      "ie": 9837,
      "ligas": 9838,
      "ties": 9839,
      "ato": 9840,
      "franca": 9841,
      "poe": 9842,
      "longa": 9843,
      "inta": 9844,
      "tante": 9845,
      "Ali": 9846,
      "ĉas": 9847,
      "bel": 9848,
      "28": 9849,
      "rapide": 9850,
      "AN": 9851,
      "Or": 9852,
      "radi": 9853,
      "komuni": 9854,
      "Eter": 9855,
      "teno": 9856,
      "Ha": 9857,
      "vio": 9858,
      "Kun": 9859,
      "tiom": 9860,
      "alta": 9861,
      "ajne": 9862,
      "kateg": 9863,
      "ore": 9864,
      "Kategorioj": 9865,
      "ilia": 9866,
      "aperis": 9867,
      "Ta": 9868,
      "uno": 9869,
      "Be": 9870,
      "ekonom": 9871,
      "Cen": 9872,
      "iam": 9873,
      "anti": 9874,
      "aloj": 9875,
      "ty": 9876,
      "koncer": 9877,
      "vero": 9878,
      "bio": 9879,
      "iĝas": 9880,
      "ĉio": 9881,
      "skul": 9882,
      "gojn": 9883,
      "kvankam": 9884,
      "mita": 9885,
      "ard": 9886,
      "ricevis": 9887,
      "grandan": 9888,
      "ĝos": 9889,
      "Ling": 9890,
      "germana": 9891,
      "mio": 9892,
      "efi": 9893,
      "landa": 9894,
      "kna": 9895,
      "hu": 9896,
      "joro": 9897,
      "nulo": 9898,
      "tak": 9899,
      "blio": 9900,
      "neniu": 9901,
      "mil": 9902,
      "eston": 9903,
      "komencis": 9904,
      "qu": 9905,
      "grava": 9906,
      "27": 9907,
      "disku": 9908,
      "ŝin": 9909,
      "reta": 9910,
      "plo": 9911,
      "mentoj": 9912,
      "distrikto": 9913,
      "novaj": 9914,
      "vojn": 9915,
      "fl": 9916,
      "akvo": 9917,
      "poten": 9918,
      "bron": 9919,
      "pris": 9920,
      "publiko": 9921,
      "postu": 9922,
      "kune": 9923,
      "Sin": 9924,
      "Sankta": 9925,
      "pera": 9926,
      "speci": 9927,
      "Nun": 9928,
      "nis": 9929,
      "bru": 9930,
      "Je": 9931,
      "].": 9932,
      "tut": 9933,
      "gaze": 9934,
      "ktp": 9935,
      "Lo": 9936,
      "tus": 9937,
      "jara": 9938,
      "havi": 9939,
      "prezidanto": 9940,
      "medi": 9941,
      "Eks": 9942,
      "Eŭropo": 9943,
      "land": 9944,
      "diri": 9945,
      "konsen": 9946,
      "tito": 9947,
      "Kris": 9948,
      "anstataŭ": 9949,
      "Ankaŭ": 9950,
      "ini": 9951,
      "konata": 9952,
      "filmo": 9953,
      "zono": 9954,
      "cojn": 9955,
      "alian": 9956,
      "lado": 9957,
      "mur": 9958,
      "Te": 9959,
      "internacia": 9960,
      "lingvon": 9961,
      "Dis": 9962,
      "hungar": 9963,
      "29": 9964,
      "Tra": 9965,
      "komer": 9966,
      "ioj": 9967,
      "Res": 9968,
      "vidas": 9969,
      "lati": 9970,
      "50": 9971,
      "ŝajn": 9972,
      "vita": 9973,
      "2017": 9974,
      "dece": 9975,
      "Bi": 9976,
      "arme": 9977,
      "IS": 9978,
      "mez": 9979,
      "grand": 9980,
      "aki": 9981,
      "afero": 9982,
      "bir": 9983,
      "legi": 9984,
      "zas": 9985,
      "Eternulo": 9986,
      "feli": 9987,
      "denove": 9988,
      "kin": 9989,
      "vido": 9990,
      "faras": 9991,
      "tes": 9992,
      "semajn": 9993,
      "kultur": 9994,
      "Asocio": 9995,
      "He": 9996,
      "eksi": 9997,
      "Francio": 9998,
      "tigis": 9999,
      "iki": 10000,
      "izo": 10001,
      "190": 10002,
      "tradi": 10003,
      "ses": 10004,
      "kli": 10005,
      "publiki": 10006,
      "reto": 10007,
      "peri": 10008,
      "ĉiujn": 10009,
      "dr": 10010,
      "anon": 10011,
      "Da": 10012,
      "com": 10013,
      "edz": 10014,
      "versitato": 10015,
      "ĉam": 10016,
      "konsis": 10017,
      "estr": 10018,
      "rapor": 10019,
      "the": 10020,
      "Ita": 10021,
      "okciden": 10022,
      "pur": 10023,
      "profes": 10024,
      "tistoj": 10025,
      "gla": 10026,
      "parol": 10027,
      "ret": 10028,
      "gusto": 10029,
      "memor": 10030,
      "teraj": 10031,
      "Antaŭ": 10032,
      "2018": 10033,
      "//": 10034,
      "skribi": 10035,
      "ef": 10036,
      "Gran": 10037,
      "konside": 10038,
      "nio": 10039,
      "rimar": 10040,
      "Esperanta": 10041,
      "tiĝis": 10042,
      "Sta": 10043,
      "ok": 10044,
      "igo": 10045,
      "”.": 10046,
      "regu": 10047,
      "hodiaŭ": 10048,
      "uzo": 10049,
      "zaŭ": 10050,
      "kris": 10051,
      "Esperanton": 10052,
      "Dan": 10053,
      "Bu": 10054,
      "eloj": 10055,
      "bas": 10056,
      "2016": 10057,
      "apud": 10058,
      "tano": 10059,
      "termin": 10060,
      "mond": 10061,
      "dona": 10062,
      "tantoj": 10063,
      "decembro": 10064,
      "tagoj": 10065,
      "rio": 10066,
      "Nu": 10067,
      "2015": 10068,
      "Is": 10069,
      "fla": 10070,
      "anka": 10071,
      "2013": 10072,
      "www": 10073,
      "For": 10074,
      "aspek": 10075,
      "inten": 10076,
      "trovis": 10077,
      "Pli": 10078,
      "ŝajne": 10079,
      "gitaj": 10080,
      "ĉefe": 10081,
      "http": 10082,
      "niaj": 10083,
      "miaj": 10084,
      "ben": 10085,
      "cien": 10086,
      "lara": 10087,
      "://": 10088,
      "novan": 10089,
      "faj": 10090,
      "pluraj": 10091,
      "ts": 10092,
      "stari": 10093,
      "precipe": 10094,
      "gajn": 10095,
      "”,": 10096,
      "even": 10097,
      "propr": 10098,
      "kru": 10099,
      "tata": 10100,
      "dol": 10101,
      "har": 10102,
      "stre": 10103,
      "Sek": 10104,
      "telo": 10105,
      "pita": 10106,
      "Bri": 10107,
      "vera": 10108,
      "EN": 10109,
      "Ĉar": 10110,
      "des": 10111,
      "redakti": 10112,
      "virin": 10113,
      "familio": 10114,
      "kurso": 10115,
      "soj": 10116,
      "konser": 10117,
      "ambaŭ": 10118,
      "Ge": 10119,
      "Kongreso": 10120,
      "inoj": 10121,
      "lian": 10122,
      "infanoj": 10123,
      "adminis": 10124,
      "signifas": 10125,
      "komun": 10126,
      "Ser": 10127,
      "gante": 10128,
      "vanta": 10129,
      "venon": 10130,
      "karak": 10131,
      "Bra": 10132,
      "vesper": 10133,
      "priskri": 10134,
      "provin": 10135,
      "kvazaŭ": 10136,
      "uaro": 10137,
      "kulturo": 10138,
      "dre": 10139,
      "Krom": 10140,
      "certe": 10141,
      "versio": 10142,
      "bela": 10143,
      "The": 10144,
      "ataj": 10145,
      "hor": 10146,
      "IN": 10147,
      "antaj": 10148,
      "To": 10149,
      "juna": 10150,
      "multajn": 10151,
      "ala": 10152,
      "iaj": 10153,
      "DE": 10154,
      "eg": 10155,
      "bezonas": 10156,
      "meto": 10157,
      "gri": 10158,
      "morto": 10159,
      "Pol": 10160,
      "Pi": 10161,
      "mortis": 10162,
      "eron": 10163,
      "puti": 10164,
      "doni": 10165,
      "km": 10166,
      "renkonti": 10167,
      "dado": 10168,
      "poni": 10169,
      "antojn": 10170,
      "temas": 10171,
      "dam": 10172,
      "dro": 10173,
      "igas": 10174,
      "voĉ": 10175,
      "ŝtato": 10176,
      "pere": 10177,
      "junu": 10178,
      "jor": 10179,
      "urn": 10180,
      "oma": 10181,
      "iri": 10182,
      "ome": 10183,
      "valo": 10184,
      "tiujn": 10185,
      "kajn": 10186,
      "):": 10187,
      "Ku": 10188,
      "okazas": 10189,
      "TE": 10190,
      "vilaĝo": 10191,
      "informoj": 10192,
      "komenci": 10193,
      "registaro": 10194,
      "lita": 10195,
      "momen": 10196,
      "niv": 10197,
      "mado": 10198,
      "laboris": 10199,
      "pru": 10200,
      "menci": 10201,
      "opini": 10202,
      "sx": 10203,
      "ktoj": 10204,
      "zer": 10205,
      "zaj": 10206,
      "influ": 10207,
      "Hungar": 10208,
      "ĝojn": 10209,
      "tiaj": 10210,
      "eta": 10211,
      "kelkajn": 10212,
      "fariĝis": 10213,
      "donas": 10214,
      "popu": 10215,
      "parolas": 10216,
      "aux": 10217,
      "ener": 10218,
      "aron": 10219,
      "Sur": 10220,
      "Ĉinio": 10221,
      "nes": 10222,
      "sulo": 10223,
      "eŭro": 10224,
      "tembro": 10225,
      "situas": 10226,
      "kategorio": 10227,
      "hal": 10228,
      "mokra": 10229,
      "feb": 10230,
      "prenis": 10231,
      "poŝ": 10232,
      "ktobro": 10233,
      "viza": 10234,
      "Mor": 10235,
      "grafio": 10236,
      "reprezen": 10237,
      "ento": 10238,
      "proksime": 10239,
      "civi": 10240,
      "inkluzi": 10241,
      "prefer": 10242,
      "plena": 10243,
      "devi": 10244,
      "difin": 10245,
      "profun": 10246,
      "Nov": 10247,
      "Ofi": 10248,
      "kompon": 10249,
      "enha": 10250,
      "les": 10251,
      "tanta": 10252,
      "Bar": 10253,
      "kontribu": 10254,
      "nove": 10255,
      "fek": 10256,
      "lova": 10257,
      "40": 10258,
      "listo": 10259,
      "elon": 10260,
      "ins": 10261,
      "tris": 10262,
      "Sch": 10263,
      "ian": 10264,
      "SA": 10265,
      "tigas": 10266,
      "programo": 10267,
      "nian": 10268,
      "malgranda": 10269,
      "tigo": 10270,
      "aĵoj": 10271,
      "mono": 10272,
      "naciaj": 10273,
      "ON": 10274,
      "sufiĉe": 10275,
      "paco": 10276,
      "ŝanĝi": 10277,
      "Mia": 10278,
      "januaro": 10279,
      "prilo": 10280,
      "almen": 10281,
      "gvi": 10282,
      "moder": 10283,
      "Co": 10284,
      "reĝo": 10285,
      "religi": 10286,
      "ideo": 10287,
      "Go": 10288,
      "kial": 10289,
      "julio": 10290,
      "Tran": 10291,
      "usona": 10292,
      "erala": 10293,
      "nomon": 10294,
      "grafi": 10295,
      "toroj": 10296,
      "Tri": 10297,
      "komple": 10298,
      "kutime": 10299,
      "personoj": 10300,
      "doku": 10301,
      "indu": 10302,
      "bre": 10303,
      "nombro": 10304,
      "farita": 10305,
      "pola": 10306,
      "aĉe": 10307,
      "ĉefa": 10308,
      "membroj": 10309,
      "tema": 10310,
      "montri": 10311,
      "unue": 10312,
      "iliaj": 10313,
      "vali": 10314,
      "Ĉiuj": 10315,
      "serio": 10316,
      "Afri": 10317,
      "maro": 10318,
      "naskiĝis": 10319,
      "mume": 10320,
      "kongres": 10321,
      "dante": 10322,
      "itato": 10323,
      "che": 10324,
      "malkov": 10325,
      "gno": 10326,
      "ŝia": 10327,
      "Fon": 10328,
      "duon": 10329,
      "majo": 10330,
      "gxis": 10331,
      "ner": 10332,
      "devis": 10333,
      "muziko": 10334,
      ".)": 10335,
      "tun": 10336,
      "Lia": 10337,
      "popolo": 10338,
      "edu": 10339,
      "San": 10340,
      "montras": 10341,
      "marto": 10342,
      "aliajn": 10343,
      "vuo": 10344,
      "tanoj": 10345,
      "epo": 10346,
      "situa": 10347,
      "monda": 10348,
      "blaj": 10349,
      "septembro": 10350,
      "tutan": 10351,
      "klas": 10352,
      "ĝejo": 10353,
      "libroj": 10354,
      "verkis": 10355,
      "Mu": 10356,
      "deziras": 10357,
      "Min": 10358,
      "origina": 10359,
      "simple": 10360,
      "dekla": 10361,
      "Man": 10362,
      "organiza": 10363,
      "2014": 10364,
      "aĝo": 10365,
      "natur": 10366,
      "oktobro": 10367,
      "eter": 10368,
      "dosi": 10369,
      "celo": 10370,
      "tag": 10371,
      "alu": 10372,
      "ĉis": 10373,
      "propra": 10374,
      "angle": 10375,
      "finan": 10376,
      "ker": 10377,
      "profi": 10378,
      "tial": 10379,
      "2008": 10380,
      "arki": 10381,
      "Ste": 10382,
      "aferoj": 10383,
      "centro": 10384,
      "Ori": 10385,
      "2010": 10386,
      "mode": 10387,
      "tenis": 10388,
      "sendepen": 10389,
      "bele": 10390,
      "iĝ": 10391,
      "noj": 10392,
      "Kiu": 10393,
      "eblaj": 10394,
      "Gu": 10395,
      "kade": 10396,
      "dono": 10397,
      "31": 10398,
      "num": 10399,
      "kata": 10400,
      "Tiam": 10401,
      "ŝis": 10402,
      "materi": 10403,
      "Kio": 10404,
      "Liber": 10405,
      "komputi": 10406,
      "helpi": 10407,
      "UN": 10408,
      "traj": 10409,
      "Kel": 10410,
      ".”": 10411,
      "Svis": 10412,
      "sk": 10413,
      "II": 10414,
      "aprilo": 10415,
      "und": 10416,
      "versala": 10417,
      "flanke": 10418,
      "esplor": 10419,
      "skribis": 10420,
      "viaj": 10421,
      "prakti": 10422,
      "undo": 10423,
      "nome": 10424,
      "tive": 10425,
      "ĝuste": 10426,
      "igita": 10427,
      "vortaro": 10428,
      "Fo": 10429,
      "ĝaj": 10430,
      "sola": 10431,
      "ena": 10432,
      "parolis": 10433,
      "apartenas": 10434,
      "rime": 10435,
      "paroli": 10436,
      "formi": 10437,
      "forges": 10438,
      "antaŭe": 10439,
      "org": 10440,
      "maniero": 10441,
      "daŭri": 10442,
      "2009": 10443,
      "trank": 10444,
      "trin": 10445,
      "facila": 10446,
      "prele": 10447,
      "jus": 10448,
      "kolon": 10449,
      "aperas": 10450,
      "devus": 10451,
      "literaturo": 10452,
      "her": 10453,
      "junio": 10454,
      "almenaŭ": 10455,
      "dos": 10456,
      "provi": 10457,
      "aser": 10458,
      "traduko": 10459,
      "dantoj": 10460,
      "Tiuj": 10461,
      "boni": 10462,
      "Eŭropa": 10463,
      "diferen": 10464,
      "sufer": 10465,
      "zeo": 10466,
      "aŭgusto": 10467,
      "Poste": 10468,
      "án": 10469,
      "RO": 10470,
      "Nur": 10471,
      "rante": 10472,
      "iĝo": 10473,
      "forta": 10474,
      "spiri": 10475,
      "sor": 10476,
      "urboj": 10477,
      "amikoj": 10478,
      "ruaro": 10479,
      "ligiloj": 10480,
      "sukcesis": 10481,
      "aŭskul": 10482,
      "net": 10483,
      "deco": 10484,
      "cisto": 10485,
      "cir": 10486,
      "premi": 10487,
      "dento": 10488,
      "cent": 10489,
      "ame": 10490,
      "kta": 10491,
      "kongreso": 10492,
      "kvan": 10493,
      "verko": 10494,
      "dra": 10495,
      "membro": 10496,
      "Jesuo": 10497,
      "ĉion": 10498,
      "uzata": 10499,
      "Pollando": 10500,
      "obser": 10501,
      "2006": 10502,
      "Trans": 10503,
      "kiom": 10504,
      "apo": 10505,
      "del": 10506,
      "obj": 10507,
      "Her": 10508,
      "onon": 10509,
      "Kor": 10510,
      "Fe": 10511,
      "plenu": 10512,
      "100": 10513,
      "TA": 10514,
      "forma": 10515,
      "ĉes": 10516,
      "punkto": 10517,
      "fal": 10518,
      "Tiel": 10519,
      "Rusio": 10520,
      "chi": 10521,
      "konstan": 10522,
      "los": 10523,
      "pensas": 10524,
      "daĵo": 10525,
      "malsam": 10526,
      "iras": 10527,
      "Wil": 10528,
      "strio": 10529,
      "efekti": 10530,
      "konf": 10531,
      "kr": 10532,
      "kro": 10533,
      ");": 10534,
      "ure": 10535,
      "volis": 10536,
      "meze": 10537,
      "zan": 10538,
      "zita": 10539,
      "viv": 10540,
      "UK": 10541,
      "Car": 10542,
      "origin": 10543,
      "temoj": 10544,
      "ĵe": 10545,
      "respondis": 10546,
      "Gra": 10547,
      "Ur": 10548,
      "taĵo": 10549,
      "aŭtoro": 10550,
      "patrino": 10551,
      "fan": 10552,
      "defen": 10553,
      "jarojn": 10554,
      "dir": 10555,
      "mult": 10556,
      "prom": 10557,
      "ĝener": 10558,
      "Ple": 10559,
      "rivero": 10560,
      "entre": 10561,
      "Jam": 10562,
      "189": 10563,
      "ĥa": 10564,
      "ry": 10565,
      "restis": 10566,
      "ege": 10567,
      "Fer": 10568,
      "kanto": 10569,
      "tian": 10570,
      "Las": 10571,
      "ima": 10572,
      "lokoj": 10573,
      "ordin": 10574,
      "nuna": 10575,
      "Kial": 10576,
      "TT": 10577,
      "multo": 10578,
      "zar": 10579,
      "60": 10580,
      "2011": 10581,
      "ĝinta": 10582,
      "Italio": 10583,
      "agado": 10584,
      "veni": 10585,
      "Lin": 10586,
      "».": 10587,
      "2012": 10588,
      "nen": 10589,
      "filozo": 10590,
      "aga": 10591,
      "teroj": 10592,
      "2007": 10593,
      "povos": 10594,
      "hav": 10595,
      "prepar": 10596,
      "lika": 10597,
      "isi": 10598,
      "provinco": 10599,
      "tria": 10600,
      "demandis": 10601,
      "forto": 10602,
      "bus": 10603,
      "vivas": 10604,
      "tuloj": 10605,
      "mina": 10606,
      "ant": 10607,
      "diĝis": 10608,
      "int": 10609,
      "verkisto": 10610,
      "komenco": 10611,
      "lumo": 10612,
      "alie": 10613,
      "verkoj": 10614,
      "tea": 10615,
      "novembro": 10616,
      "alio": 10617,
      "paĝoj": 10618,
      "Wiki": 10619,
      "subten": 10620,
      "tanto": 10621,
      "ĉefurbo": 10622,
      "Vor": 10623,
      "gravaj": 10624,
      "tiva": 10625,
      "teron": 10626,
      "homa": 10627,
      "fr": 10628,
      "rusa": 10629,
      "supo": 10630,
      "labori": 10631,
      "meti": 10632,
      "disvol": 10633,
      "Universitato": 10634,
      "bliote": 10635,
      "frue": 10636,
      "lernejo": 10637,
      "Tur": 10638,
      "frem": 10639,
      "ly": 10640,
      "tron": 10641,
      "lek": 10642,
      "ulojn": 10643,
      "restas": 10644,
      "fakte": 10645,
      "Ad": 10646,
      "favor": 10647,
      "bonan": 10648,
      "pie": 10649,
      "Brazi": 10650,
      "Lon": 10651,
      "logia": 10652,
      "Kristo": 10653,
      "infan": 10654,
      "tista": 10655,
      "kompreni": 10656,
      "baj": 10657,
      "oron": 10658,
      "artikoloj": 10659,
      "Eksteraj": 10660,
      "2005": 10661,
      "daŭre": 10662,
      "unuan": 10663,
      "Ameri": 10664,
      "»,": 10665,
      "tekni": 10666,
      "parolan": 10667,
      "ciaj": 10668,
      "baldaŭ": 10669,
      "ĵurn": 10670,
      "parti": 10671,
      "nenion": 10672,
      "Sinjoro": 10673,
      "Ĝis": 10674,
      "OR": 10675,
      "Kion": 10676,
      "Tial": 10677,
      "lerni": 10678,
      "Im": 10679,
      "konas": 10680,
      "ista": 10681,
      "danĝ": 10682,
      "februaro": 10683,
      "pozicio": 10684,
      "pensis": 10685,
      "berg": 10686,
      "projekto": 10687,
      "sank": 10688,
      "uri": 10689,
      "vivon": 10690,
      "Com": 10691,
      "Fa": 10692,
      "okuloj": 10693,
      "ulon": 10694,
      "lito": 10695,
      "bile": 10696,
      "demokra": 10697,
      "tivo": 10698,
      "EL": 10699,
      "lezio": 10700,
      "ofer": 10701,
      "baro": 10702,
      "proce": 10703,
      "enta": 10704,
      "estoj": 10705,
      "deks": 10706,
      "pojn": 10707,
      "malal": 10708,
      "decidis": 10709,
      "Fin": 10710,
      "unuaj": 10711,
      "Mos": 10712,
      "forte": 10713,
      "lasi": 10714,
      "Nova": 10715,
      "jes": 10716,
      "ablon": 10717,
      "federa": 10718,
      "iden": 10719,
      "meta": 10720,
      "edzino": 10721,
      "balo": 10722,
      "mals": 10723,
      "37": 10724,
      "Hispanio": 10725,
      "supre": 10726,
      "vajn": 10727,
      "Ĉiu": 10728,
      "Kol": 10729,
      "lasis": 10730,
      "Dek": 10731,
      "rete": 10732,
      "kia": 10733,
      "IV": 10734,
      "KA": 10735,
      "detru": 10736,
      "nan": 10737,
      "periodo": 10738,
      "arto": 10739,
      "leg": 10740,
      "graŭ": 10741,
      "pensi": 10742,
      "enhavas": 10743,
      "Bel": 10744,
      "35": 10745,
      "minu": 10746,
      "tagon": 10747,
      "levi": 10748,
      "komprenas": 10749,
      "Pla": 10750,
      "samtempe": 10751,
      "invi": 10752,
      "socia": 10753,
      "krei": 10754,
      "uzis": 10755,
      "ordo": 10756,
      "kunlabor": 10757,
      "klopo": 10758,
      "iun": 10759,
      "fama": 10760,
      "kvo": 10761,
      "Aliaj": 10762,
      "disvas": 10763,
      "protek": 10764,
      "Pas": 10765,
      "loĝantoj": 10766,
      "lingvaj": 10767,
      "cha": 10768,
      "Eble": 10769,
      "Plej": 10770,
      "here": 10771,
      "Fine": 10772,
      "kons": 10773,
      "non": 10774,
      "zia": 10775,
      "gxi": 10776,
      "knab": 10777,
      "Universala": 10778,
      "188": 10779,
      "logo": 10780,
      "EU": 10781,
      "solda": 10782,
      "virinoj": 10783,
      "insulo": 10784,
      "Ven": 10785,
      "cistoj": 10786,
      "Japanio": 10787,
      "mano": 10788,
      "amiko": 10789,
      "dok": 10790,
      "Vo": 10791,
      "ĝenerale": 10792,
      "vivi": 10793,
      "trankvi": 10794,
      "aparte": 10795,
      "struk": 10796,
      "brojn": 10797,
      "grave": 10798,
      "subi": 10799,
      "numero": 10800,
      "koro": 10801,
      "politika": 10802,
      "Ekde": 10803,
      "Hel": 10804,
      "Rom": 10805,
      "Respubliko": 10806,
      "vivis": 10807,
      "ŝu": 10808,
      "menta": 10809,
      "Neni": 10810,
      "ĵus": 10811,
      "princi": 10812,
      "IA": 10813,
      "Har": 10814,
      "para": 10815,
      "tigita": 10816,
      "inkluzive": 10817,
      "viro": 10818,
      "hungara": 10819,
      "Nacia": 10820,
      "JO": 10821,
      "Kvankam": 10822,
      "ĉoj": 10823,
      "landaj": 10824,
      "pedi": 10825,
      "bonaj": 10826,
      "grupoj": 10827,
      "pliboni": 10828,
      "vortojn": 10829,
      "kistoj": 10830,
      "entrepren": 10831,
      "Pu": 10832,
      "bran": 10833,
      "tiĝo": 10834,
      "Ekzem": 10835,
      "metis": 10836,
      "unici": 10837,
      "ela": 10838,
      "psi": 10839,
      "revolu": 10840,
      "stran": 10841,
      "silen": 10842,
      "antaro": 10843,
      "kso": 10844,
      "manoj": 10845,
      "kontra": 10846,
      "blu": 10847,
      "Fi": 10848,
      "cxi": 10849,
      "armeo": 10850,
      "orienta": 10851,
      "sh": 10852,
      "fero": 10853,
      "nivelo": 10854,
      "fis": 10855,
      "Rus": 10856,
      "ministro": 10857,
      "partoprenis": 10858,
      "eten": 10859,
      "kredas": 10860,
      "eviden": 10861,
      "Ren": 10862,
      "ditaj": 10863,
      "Paĝoj": 10864,
      "tana": 10865,
      "nomata": 10866,
      "aroj": 10867,
      "umo": 10868,
      "posed": 10869,
      "simbo": 10870,
      "kompan": 10871,
      "45": 10872,
      "uson": 10873,
      "kontak": 10874,
      "Unio": 10875,
      "tempon": 10876,
      "fizi": 10877,
      "loka": 10878,
      "flanko": 10879,
      "isma": 10880,
      "pto": 10881,
      "kcio": 10882,
      "LE": 10883,
      "Parizo": 10884,
      "teo": 10885,
      "wi": 10886,
      "persono": 10887,
      "dank": 10888,
      "Granda": 10889,
      "RA": 10890,
      "Oficiala": 10891,
      "ofici": 10892,
      "popula": 10893,
      "rinde": 10894,
      "homojn": 10895,
      "bis": 10896,
      "tiĝas": 10897,
      "korpo": 10898,
      "2000": 10899,
      "emo": 10900,
      "supren": 10901,
      "lastaj": 10902,
      "intaj": 10903,
      "rilate": 10904,
      "dejo": 10905,
      "gxo": 10906,
      "okaze": 10907,
      "rekte": 10908,
      "gantoj": 10909,
      "klasi": 10910,
      "kolek": 10911,
      "virino": 10912,
      "epoko": 10913,
      "Afriko": 10914,
      "som": 10915,
      "tage": 10916,
      "ŝanĝoj": 10917,
      "maten": 10918,
      "konten": 10919,
      "ph": 10920,
      "loĝantojn": 10921,
      "okazos": 10922,
      "Junu": 10923,
      "pero": 10924,
      "statu": 10925,
      "ŝajnas": 10926,
      "kitaj": 10927,
      "ordi": 10928,
      "beto": 10929,
      "alpor": 10930,
      "atingis": 10931,
      "limi": 10932,
      "venos": 10933,
      "firma": 10934,
      "tt": 10935,
      "vino": 10936,
      "reali": 10937,
      "fron": 10938,
      "rigardis": 10939,
      "Spi": 10940,
      "proksimume": 10941,
      "ete": 10942,
      "festo": 10943,
      "Ke": 10944,
      "partoj": 10945,
      "tulo": 10946,
      "kompar": 10947,
      "opera": 10948,
      "malan": 10949,
      "Va": 10950,
      "trojn": 10951,
      "ampl": 10952,
      "Vin": 10953,
      "Soci": 10954,
      "Ang": 10955,
      "33": 10956,
      "problemo": 10957,
      "horo": 10958,
      "mos": 10959,
      ".,": 10960,
      "mova": 10961,
      "ganto": 10962,
      "Nas": 10963,
      "tempa": 10964,
      "paŝ": 10965,
      "necesas": 10966,
      "miloj": 10967,
      "revuo": 10968,
      "distin": 10969,
      "kona": 10970,
      "movi": 10971,
      "cxe": 10972,
      "ekzamen": 10973,
      "ĝar": 10974,
      "rekon": 10975,
      "80": 10976,
      "kriti": 10977,
      "data": 10978,
      "bert": 10979,
      "volon": 10980,
      "Krome": 10981,
      "],": 10982,
      "sciis": 10983,
      "',": 10984,
      "hispana": 10985,
      "Jan": 10986,
      "novajn": 10987,
      "zu": 10988,
      "ence": 10989,
      "kara": 10990,
      "enkondu": 10991,
      "?\"": 10992,
      "Svislando": 10993,
      "wa": 10994,
      "milionoj": 10995,
      "Hungario": 10996,
      "2004": 10997,
      "Lan": 10998,
      "lern": 10999,
      "KO": 11000,
      "Via": 11001,
      "administra": 11002,
      "!\"": 11003,
      "linio": 11004,
      "36": 11005,
      "Scien": 11006,
      "adres": 11007,
      "70": 11008,
      "vel": 11009,
      "Estis": 11010,
      "ghi": 11011,
      "verŝajne": 11012,
      "tel": 11013,
      "libron": 11014,
      "cin": 11015,
      "Stu": 11016,
      "malnova": 11017,
      "jare": 11018,
      "ŝatas": 11019,
      "konkur": 11020,
      "mesa": 11021,
      "Listo": 11022,
      "zojn": 11023,
      "tien": 11024,
      "politiko": 11025,
      "lini": 11026,
      "Var": 11027,
      "cejo": 11028,
      "stato": 11029,
      "koncep": 11030,
      "Tu": 11031,
      "eka": 11032,
      "vano": 11033,
      "komuniki": 11034,
      "fiŝ": 11035,
      "institu": 11036,
      "op": 11037,
      "konsistas": 11038,
      "ger": 11039,
      "okazi": 11040,
      "Pra": 11041,
      "transi": 11042,
      "petas": 11043,
      "Bal": 11044,
      "trov": 11045,
      "arbar": 11046,
      "kapo": 11047,
      "burgo": 11048,
      "bordo": 11049,
      "alon": 11050,
      "atingi": 11051,
      "taĵoj": 11052,
      "dida": 11053,
      "specia": 11054,
      "Tre": 11055,
      "trovas": 11056,
      "tom": 11057,
      "ŝto": 11058,
      "ligis": 11059,
      "komuna": 11060,
      "sinjoro": 11061,
      "opinias": 11062,
      "demando": 11063,
      "malami": 11064,
      "kti": 11065,
      "Gr": 11066,
      "klare": 11067,
      "servo": 11068,
      "Con": 11069,
      "tar": 11070,
      "scii": 11071,
      "male": 11072,
      "rajtoj": 11073,
      "lum": 11074,
      "lingvis": 11075,
      "ĝenerala": 11076,
      "ĝintaj": 11077,
      "oficiala": 11078,
      "ŝtatoj": 11079,
      "John": 11080,
      "dun": 11081,
      "pol": 11082,
      "rano": 11083,
      "eko": 11084,
      "edzi": 11085,
      "ĉambro": 11086,
      "partio": 11087,
      "Tie": 11088,
      "Akade": 11089,
      "parla": 11090,
      "Sove": 11091,
      "nok": 11092,
      "Komunu": 11093,
      "MA": 11094,
      "rekomen": 11095,
      "dar": 11096,
      "publika": 11097,
      "alt": 11098,
      "stro": 11099,
      "speciala": 11100,
      "nenio": 11101,
      "internaci": 11102,
      "cu": 11103,
      "Kelkaj": 11104,
      "simpla": 11105,
      "34": 11106,
      "Kul": 11107,
      "mata": 11108,
      "teritorio": 11109,
      "Ga": 11110,
      "ferenco": 11111,
      "ĝiaj": 11112,
      "patroj": 11113,
      "bildo": 11114,
      "Val": 11115,
      "vante": 11116,
      "scen": 11117,
      "nepre": 11118,
      "ŝton": 11119,
      "kultura": 11120,
      "asocio": 11121,
      "ligo": 11122,
      "momento": 11123,
      "fig": 11124,
      "ys": 11125,
      "rajtas": 11126,
      "lokon": 11127,
      "areo": 11128,
      "Geor": 11129,
      "gata": 11130,
      "ĝan": 11131,
      "legis": 11132,
      "pose": 11133,
      "situacio": 11134,
      "eksci": 11135,
      "dajn": 11136,
      "bin": 11137,
      "aŭtor": 11138,
      "ĉjo": 11139,
      "supra": 11140,
      "nos": 11141,
      "lau": 11142,
      "alisto": 11143,
      "Mili": 11144,
      "ega": 11145,
      "vorton": 11146,
      "alvo": 11147,
      "blioteko": 11148,
      "ŝas": 11149,
      "isla": 11150,
      "foli": 11151,
      "dipl": 11152,
      "fono": 11153,
      "Distrikto": 11154,
      "kolo": 11155,
      "US": 11156,
      "pisko": 11157,
      "malaper": 11158,
      "ari": 11159,
      "adon": 11160,
      "fonto": 11161,
      "rilatoj": 11162,
      "staras": 11163,
      "lor": 11164,
      "temon": 11165,
      "tintoj": 11166,
      "registri": 11167,
      "staris": 11168,
      "parton": 11169,
      "sekreta": 11170,
      "Maria": 11171,
      "preĝejo": 11172,
      "Britio": 11173,
      "ciojn": 11174,
      "individu": 11175,
      "petis": 11176,
      "Hen": 11177,
      "filmoj": 11178,
      "mallon": 11179,
      "montris": 11180,
      "riĉ": 11181,
      "scienco": 11182,
      "Hu": 11183,
      "lago": 11184,
      "39": 11185,
      "Hi": 11186,
      "proksima": 11187,
      "ordon": 11188,
      "ell": 11189,
      "gulo": 11190,
      "viroj": 11191,
      "Okciden": 11192,
      "prezentas": 11193,
      "tic": 11194,
      "uso": 11195,
      "bono": 11196,
      "ligita": 11197,
      "grande": 11198,
      "nado": 11199,
      "into": 11200,
      "dedi": 11201,
      "tn": 11202,
      "laboron": 11203,
      "Ĉeĥ": 11204,
      "2001": 11205,
      "malvar": 11206,
      "Multaj": 11207,
      "tecon": 11208,
      "nita": 11209,
      "kalku": 11210,
[...]
